<unk>	0
<s>	0
</s>	0
▁我	-0
▁你	-1
▁不	-2
你的	-3
我的	-4
▁一	-5
没有	-6
▁爱	-7
▁就	-8
▁只	-9
让我	-10
一个	-11
▁是	-12
▁这	-13
什么	-14
▁在	-15
自己	-16
▁那	-17
▁有	-18
我们	-19
▁我们	-20
▁如	-21
▁为	-22
世界	-23
爱的	-24
▁也	-25
▁我的	-26
▁谁	-27
▁想	-28
幸福	-29
永远	-30
是我	-31
知道	-32
▁心	-33
▁还	-34
▁无	-35
一起	-36
▁你的	-37
不会	-38
▁可	-39
快乐	-40
为你	-41
▁看	-42
怎么	-43
爱情	-44
爱你	-45
▁让	-46
多少	-47
着你	-48
曾经	-49
▁让我	-50
▁如果	-51
回忆	-52
▁当	-53
所有	-54
美丽	-55
▁再	-56
▁别	-57
的心	-58
▁天	-59
▁每	-60
▁从	-61
▁却	-62
时间	-63
寂寞	-64
不能	-65
时候	-66
不是	-67
▁人	-68
已经	-69
真的	-70
的人	-71
▁没有	-72
一切	-73
这样	-74
可以	-75
那么	-76
心里	-77
是你	-78
一天	-79
▁最	-80
▁都	-81
离开	-82
不再	-83
给我	-84
啦啦	-85
▁好	-86
思念	-87
忘记	-88
和你	-89
现在	-90
▁把	-91
生活	-92
不要	-93
心中	-94
▁今	-95
的爱	-96
一生	-97
温柔	-98
个人	-99
▁风	-100
一次	-101
▁但	-102
感觉	-103
还是	-104
就是	-105
身边	-106
太多	-107
眼泪	-108
在我	-109
梦想	-110
未来	-111
过去	-112
▁等	-113
▁相	-114
总是	-115
生命	-116
一样	-117
了你	-118
一点	-119
不到	-120
希望	-121
▁不要	-122
▁要	-123
▁多	-124
一个人	-125
▁他	-126
因为	-127
▁请	-128
▁像	-129
▁情	-130
给你	-131
过的	-132
▁我不	-133
▁你是	-134
岁月	-135
▁就算	-136
时光	-137
有你	-138
▁说	-139
▁难	-140
▁也许	-141
需要	-142
朋友	-143
温暖	-144
记得	-145
▁来	-146
留下	-147
拥抱	-148
▁我想	-149
▁走	-150
▁我要	-151
慢慢	-152
无法	-153
明天	-154
▁才	-155
是一	-156
着我	-157
▁你说	-158
▁又	-159
让你	-160
最后	-161
喜欢	-162
孤单	-163
▁对	-164
▁用	-165
我的心	-166
故事	-167
▁梦	-168
▁曾经	-169
开始	-170
明白	-171
青春	-172
记忆	-173
▁大	-174
爱我	-175
的你	-176
在你	-177
以后	-178
失去	-179
阳光	-180
相信	-181
也不	-182
▁啊	-183
依然	-184
想你	-185
心的	-186
告诉	-187
孤独	-188
天空	-189
自由	-190
▁爱情	-191
▁没	-192
变成	-193
人的	-194
地方	-195
等待	-196
一直	-197
的我	-198
轻轻	-199
忘了	-200
▁放	-201
微笑	-202
▁原	-203
其实	-204
▁为何	-205
好的	-206
在这	-207
▁能	-208
都是	-209
▁小	-210
▁回	-211
眼睛	-212
在一起	-213
彼此	-214
▁我会	-215
不见	-216
对你	-217
哪里	-218
▁而	-219
甜蜜	-220
的时候	-221
中的	-222
把你	-223
妈妈	-224
与你	-225
改变	-226
只是	-227
▁听	-228
拥有	-229
感情	-230
美的	-231
▁因为	-232
愿意	-233
▁只要	-234
美丽的	-235
▁何	-236
你我	-237
▁到	-238
亲爱的	-239
▁若	-240
的路	-241
对我	-242
能够	-243
不了	-244
▁怎么	-245
都不	-246
▁我是	-247
风雨	-248
▁总	-249
里的	-250
继续	-251
远方	-252
▁花	-253
勇敢	-254
放弃	-255
▁多少	-256
的情	-257
▁她	-258
的那	-259
▁幸福	-260
承诺	-261
期待	-262
我不	-263
面对	-264
如此	-265
姑娘	-266
过了	-267
回头	-268
分手	-269
付出	-270
沉默	-271
一场	-272
想起	-273
一片	-274
选择	-275
▁夜	-276
伤心	-277
▁其实	-278
以为	-279
陪你	-280
我心	-281
独自	-282
到你	-283
如何	-284
有多	-285
努力	-286
发现	-287
珍惜	-288
日子	-289
▁愿	-290
▁我的心	-291
真心	-292
▁不管	-293
▁红	-294
▁带	-295
的歌	-296
遇见	-297
▁为什么	-298
想要	-299
习惯	-300
还在	-301
▁永远	-302
害怕	-303
悲伤	-304
虽然	-305
梦里	-306
▁还是	-307
▁只是	-308
▁原来	-309
▁是否	-310
▁千	-311
身旁	-312
泪水	-313
了我	-314
瞬间	-315
看见	-316
天的	-317
▁我只	-318
我们的	-319
太阳	-320
▁我在	-321
▁一起	-322
着你的	-323
变得	-324
▁明	-325
天涯	-326
笑容	-327
会有	-328
再见	-329
的夜	-330
早已	-331
所有的	-332
还有	-333
▁一个人	-334
你在	-335
难过	-336
方向	-337
结果	-338
中国	-339
城市	-340
牵挂	-341
祝福	-342
之间	-343
▁春	-344
从前	-345
你是	-346
为我	-347
和我	-348
▁月	-349
不停	-350
的风	-351
到了	-352
▁唱	-353
▁为你	-354
▁全	-355
▁感	-356
▁如今	-357
不住	-358
黑夜	-359
▁哪	-360
哭泣	-361
▁我也	-362
相遇	-363
终于	-364
▁难道	-365
应该	-366
默默	-367
那个	-368
▁飞	-369
在心	-370
▁会	-371
▁流	-372
浪漫	-373
怎样	-374
▁就像	-375
▁现在	-376
深深	-377
▁不再	-378
美好	-379
▁虽然	-380
上的	-381
下的	-382
起来	-383
不在	-384
誓言	-385
你的心	-386
▁随	-387
▁那些	-388
注定	-389
色的	-390
这个	-391
▁时间	-392
往事	-393
不想	-394
寻找	-395
把我	-396
今生	-397
▁哦	-398
多么	-399
就像	-400
人生	-401
情的	-402
风吹	-403
所以	-404
坚强	-405
▁被	-406
辈子	-407
兄弟	-408
陪我	-409
结局	-410
▁或	-411
一定	-412
▁去	-413
回到	-414
爱上	-415
一种	-416
▁亲爱的	-417
的梦	-418
简单	-419
声音	-420
那些	-421
不过	-422
▁回忆	-423
模样	-424
呼吸	-425
首歌	-426
一句	-427
花开	-428
▁是我	-429
只有	-430
▁最后	-431
▁什么	-432
▁人生	-433
直到	-434
▁只有	-435
▁任	-436
熟悉	-437
▁我知道	-438
陪伴	-439
唯一	-440
一刻	-441
不知	-442
觉得	-443
▁还有	-444
相思	-445
伤害	-446
出现	-447
痛苦	-448
▁长	-449
后悔	-450
所谓	-451
走过	-452
▁从此	-453
为了	-454
▁自	-455
命运	-456
告诉我	-457
▁越	-458
属于	-459
路上	-460
爱过	-461
▁爱你	-462
开心	-463
想念	-464
遥远	-465
▁两	-466
▁雨	-467
▁将	-468
▁你是我	-469
转身	-470
▁是你	-471
▁和	-472
▁它	-473
今天	-474
勇气	-475
这么	-476
不起	-477
回来	-478
等你	-479
不可	-480
▁真	-481
感动	-482
▁曾	-483
▁请你	-484
▁山	-485
学会	-486
▁无论	-487
的地方	-488
▁留	-489
歌唱	-490
的天	-491
是否	-492
存在	-493
草原	-494
理由	-495
昨天	-496
▁不想	-497
仿佛	-498
灵魂	-499
不懂	-500
静静	-501
▁不知	-502
世间	-503
到底	-504
啦啦啦啦	-505
是我的	-506
星星	-507
回家	-508
不出	-509
分离	-510
女人	-511
突然	-512
的世界	-513
一些	-514
人间	-515
遗憾	-516
眼神	-517
烦恼	-518
▁世界	-519
幸福的	-520
▁为了	-521
▁寂寞	-522
年的	-523
灿烂	-524
你的爱	-525
不得	-526
▁所以	-527
向前	-528
力量	-529
是谁	-530
渐渐	-531
站在	-532
▁已	-533
消失	-534
充满	-535
▁跟	-536
为何	-537
▁做	-538
现实	-539
▁一生	-540
▁穿	-541
▁找	-542
▁总是	-543
不清	-544
眼前	-545
放手	-546
匆匆	-547
双手	-548
▁忘	-549
牵手	-550
的爱情	-551
距离	-552
别人	-553
悄悄	-554
▁让我们	-555
一世	-556
决定	-557
双眼	-558
分开	-559
的话	-560
得到	-561
才能	-562
▁一个	-563
玫瑰	-564
▁笑	-565
执着	-566
忧伤	-567
▁快	-568
最美的	-569
离去	-570
感受	-571
的伤	-572
▁手	-573
你说	-574
尽头	-575
渴望	-576
▁望	-577
孩子	-578
相爱	-579
流浪	-580
一杯	-581
不够	-582
无奈	-583
▁此	-584
离别	-585
容易	-586
▁今生	-587
▁给我	-588
脚步	-589
▁仍	-590
男人	-591
▁今天	-592
翅膀	-593
月亮	-594
遗忘	-595
▁万	-596
走了	-597
▁思念	-598
飞翔	-599
的小	-600
安慰	-601
怀念	-602
一年	-603
故乡	-604
理想	-605
停留	-606
▁一切	-607
▁很	-608
茫茫	-609
陌生	-610
▁留下	-611
画面	-612
爱的人	-613
在乎	-614
剩下	-615
缘分	-616
我的爱	-617
的脸	-618
流泪	-619
▁快乐	-620
夜里	-621
▁白	-622
守候	-623
永不	-624
承受	-625
月光	-626
让人	-627
看到	-628
全部	-629
只能	-630
▁我爱你	-631
你不	-632
自己的	-633
精彩	-634
▁三	-635
▁伤	-636
被你	-637
天地	-638
▁海	-639
我会	-640
滋味	-641
空气	-642
▁成	-643
来的	-644
▁下	-645
▁日	-646
燃烧	-647
懂得	-648
▁哪怕	-649
绽放	-650
我是	-651
始终	-652
缠绵	-653
我也	-654
幻想	-655
▁岁月	-656
过往	-657
不去	-658
每个	-659
红尘	-660
依旧	-661
▁老	-662
颗心	-663
▁问	-664
新的	-665
样的	-666
ou	-667
▁就让	-668
▁在这	-669
▁阿	-670
▁落	-671
▁你在	-672
一秒	-673
彩虹	-674
不开	-675
徘徊	-676
英雄	-677
错过	-678
之后	-679
▁同	-680
▁是谁	-681
▁然	-682
好好	-683
▁前	-684
你的手	-685
在这里	-686
▁可是	-687
的是	-688
▁是不是	-689
▁当我	-690
了一	-691
天下	-692
永恒	-693
▁你却	-694
▁我愿	-695
了解	-696
▁心中	-697
点点	-698
▁所有	-699
窗外	-700
▁I	-701
坚持	-702
▁太	-703
▁如果你	-704
▁爱的	-705
值得	-706
都会	-707
▁就这样	-708
▁希望	-709
歌声	-710
我在	-711
一段	-712
▁慢慢	-713
你会	-714
我爱你	-715
角落	-716
长大	-717
的花	-718
疯狂	-719
黑暗	-720
▁满	-721
▁清	-722
谢你	-723
漫长	-724
▁y	-725
随风	-726
▁年	-727
▁轻轻	-728
▁等待	-729
紧紧	-730
梦中	-731
ve	-732
▁让你	-733
来不	-734
▁l	-735
▁不能	-736
▁这是	-737
▁只想	-738
完美	-739
▁你要	-740
▁我还	-741
一路	-742
家乡	-743
▁即	-744
名字	-745
▁追	-746
▁纵	-747
里面	-748
成了	-749
骄傲	-750
▁重	-751
▁直到	-752
▁打	-753
相见	-754
游戏	-755
在我的	-756
▁你就	-757
心碎	-758
▁想起	-759
▁我就	-760
▁几	-761
相依	-762
为什么	-763
▁深	-764
不变	-765
身影	-766
▁就是	-767
安静	-768
都在	-769
▁不会	-770
醒来	-771
接受	-772
▁怎	-773
风景	-774
偶尔	-775
▁已经	-776
在你的	-777
伤悲	-778
实现	-779
一声	-780
每天	-781
▁想要	-782
▁你我	-783
为谁	-784
▁该	-785
春天	-786
▁因	-787
▁迷	-788
▁O	-789
▁或许	-790
▁离开	-791
▁别再	-792
▁假	-793
▁那是	-794
当初	-795
音乐	-796
▁有些	-797
身体	-798
▁转	-799
靠近	-800
少年	-801
▁青	-802
▁在我	-803
▁未	-804
▁生	-805
▁生命	-806
不下	-807
很多	-808
▁爱上	-809
▁给	-810
▁尽	-811
▁不是	-812
说话	-813
折磨	-814
有人	-815
有点	-816
闭上	-817
▁泪	-818
天堂	-819
秘密	-820
有一天	-821
在那	-822
的光	-823
▁无法	-824
无悔	-825
美好的	-826
▁莫	-827
▁相信	-828
爸爸	-829
冷漠	-830
▁仿佛	-831
背影	-832
一步	-833
许多	-834
重要	-835
化作	-836
来越	-837
体会	-838
▁我却	-839
恋爱	-840
照亮	-841
▁青春	-842
▁一直	-843
偷偷	-844
▁我们的	-845
爱情的	-846
▁你是否	-847
味道	-848
▁眼泪	-849
▁哎	-850
▁每天	-851
着我的	-852
平凡	-853
夕阳	-854
风中	-855
▁生活	-856
清楚	-857
守护	-858
笑脸	-859
听见	-860
不断	-861
找到	-862
▁你会	-863
经过	-864
天边	-865
▁共	-866
▁m	-867
情人	-868
▁妈妈	-869
不必	-870
何时	-871
结束	-872
失落	-873
意义	-874
▁我的爱	-875
不同	-876
▁时光	-877
的一	-878
星光	-879
▁真的	-880
挽留	-881
▁谁能	-882
就要	-883
▁和你	-884
▁忘记	-885
告别	-886
繁华	-887
也会	-888
▁就让我	-889
他的	-890
▁时	-891
一遍	-892
情歌	-893
的泪	-894
心情	-895
我要	-896
大的	-897
▁热	-898
关系	-899
的生活	-900
▁明天	-901
不曾	-902
再次	-903
诉说	-904
左右	-905
下去	-906
大地	-907
受伤	-908
▁忘了	-909
心底	-910
▁心里	-911
你要	-912
了我的	-913
心中的	-914
▁这个	-915
悠悠	-916
▁天空	-917
▁我不想	-918
▁嘿	-919
走到	-920
▁终于	-921
▁开	-922
好吗	-923
都有	-924
人海	-925
成长	-926
▁未来	-927
▁那么	-928
▁新	-929
▁有你	-930
地久	-931
容颜	-932
▁我已	-933
▁痛	-934
来来	-935
我自己	-936
▁早	-937
季节	-938
在心里	-939
放下	-940
旋律	-941
看你	-942
蓝天	-943
▁美丽的	-944
就会	-945
还要	-946
▁高	-947
冰冷	-948
不会再	-949
▁牵	-950
▁飘	-951
宁愿	-952
轮回	-953
疲惫	-954
温暖的	-955
▁欢	-956
▁秋	-957
千年	-958
▁醉	-959
真情	-960
▁只能	-961
▁向	-962
▁路	-963
▁即使	-964
▁w	-965
闪烁	-966
与我	-967
经历	-968
放开	-969
▁喜欢	-970
之中	-971
▁连	-972
脆弱	-973
▁冷	-974
▁谢	-975
▁云	-976
▁今夜	-977
▁b	-978
蝴蝶	-979
享受	-980
..	-981
认真	-982
▁眼	-983
不敢	-984
不知道	-985
给的	-986
▁反	-987
怀里	-988
带走	-989
▁怕	-990
▁在你	-991
▁十	-992
▁失去	-993
相伴	-994
来到	-995
▁过去	-996
▁想你	-997
有我	-998
in	-999
说出	-1000
事情	-1001
▁空	-1002
无所谓	-1003
▁当你	-1004
也许	-1005
感到	-1006
无限	-1007
祖国	-1008
时代	-1009
借口	-1010
▁苦	-1011
宝贝	-1012
▁换	-1013
▁既	-1014
来了	-1015
约定	-1016
▁多想	-1017
熟悉的	-1018
▁远	-1019
一人	-1020
▁一路	-1021
舍不得	-1022
女孩	-1023
▁轻	-1024
妹妹	-1025
▁何必	-1026
冬天	-1027
有些	-1028
彷徨	-1029
目光	-1030
盼望	-1031
模糊	-1032
黄昏	-1033
不掉	-1034
▁梦想	-1035
▁然后	-1036
电话	-1037
奇迹	-1038
小心	-1039
爱你的	-1040
问我	-1041
也是	-1042
▁阳光	-1043
更加	-1044
万里	-1045
▁分	-1046
的手	-1047
眷恋	-1048
▁如何	-1049
可能	-1050
破碎	-1051
▁我说	-1052
这里	-1053
哥哥	-1054
跟你	-1055
海角	-1056
▁雪	-1057
盛开	-1058
▁终	-1059
不该	-1060
▁这样	-1061
为爱	-1062
▁写	-1063
叫我	-1064
天天	-1065
挣扎	-1066
等候	-1067
一辈子	-1068
一首	-1069
遇见你	-1070
无情	-1071
融化	-1072
还能	-1073
回首	-1074
诺言	-1075
▁漫	-1076
夜晚	-1077
时刻	-1078
▁看着	-1079
怀抱	-1080
▁不必	-1081
▁他们	-1082
越来越	-1083
by	-1084
在哪里	-1085
太多的	-1086
▁至	-1087
了心	-1088
东西	-1089
天长	-1090
情愿	-1091
不爱	-1092
面前	-1093
一颗	-1094
潇洒	-1095
脑海	-1096
花儿	-1097
▁似	-1098
逃避	-1099
▁吹	-1100
沧桑	-1101
传说	-1102
咖啡	-1103
笑着	-1104
忘掉	-1105
的日子	-1106
请你	-1107
▁亲	-1108
在意	-1109
▁拥抱	-1110
▁家	-1111
▁朋友	-1112
▁记得	-1113
他们	-1114
给我的	-1115
起了	-1116
滴滴	-1117
不完	-1118
是一种	-1119
从此	-1120
▁梦里	-1121
▁点	-1122
一回	-1123
任何	-1124
耳边	-1125
谎言	-1126
关于	-1127
心痛	-1128
何必	-1129
▁you	-1130
是你的	-1131
整个	-1132
▁独自	-1133
唱着	-1134
▁好想	-1135
不怕	-1136
深处	-1137
那天	-1138
夜的	-1139
▁风雨	-1140
大海	-1141
▁只为	-1142
▁迎	-1143
如今	-1144
彻底	-1145
好像	-1146
影子	-1147
▁我们都	-1148
▁上	-1149
▁只要你	-1150
▁不知道	-1151
痴心	-1152
无人	-1153
四季	-1154
伤痕	-1155
▁感觉	-1156
夏天	-1157
怀疑	-1158
自我	-1159
难以	-1160
▁喔	-1161
我都	-1162
不好	-1163
▁美	-1164
的感觉	-1165
就这样	-1166
内心	-1167
相逢	-1168
对你的	-1169
成为	-1170
带着	-1171
谁的	-1172
多久	-1173
▁啦啦啦啦	-1174
奔跑	-1175
▁与	-1176
痕迹	-1177
下来	-1178
流淌	-1179
时的	-1180
说你	-1181
▁o	-1182
▁陪你	-1183
漂泊	-1184
开了	-1185
思绪	-1186
▁唯	-1187
芬芳	-1188
▁既然	-1189
灯火	-1190
多年	-1191
轻易	-1192
▁我有	-1193
别再	-1194
就在	-1195
▁孤单	-1196
桃花	-1197
泪流	-1198
▁水	-1199
不觉	-1200
期盼	-1201
从来	-1202
上了	-1203
▁你是我的	-1204
是最	-1205
我还	-1206
淡淡	-1207
▁你可	-1208
到最后	-1209
▁好像	-1210
告诉你	-1211
▁多么	-1212
▁南	-1213
▁更	-1214
一点点	-1215
▁可以	-1216
机会	-1217
谁能	-1218
回答	-1219
跟我	-1220
▁平	-1221
坚定	-1222
安排	-1223
短暂	-1224
一朵	-1225
绝望	-1226
担心	-1227
不愿	-1228
见你	-1229
再也	-1230
▁五	-1231
▁江	-1232
▁彼此	-1233
找不到	-1234
陪着你	-1235
向往	-1236
▁等你	-1237
▁分手	-1238
对我说	-1239
的雨	-1240
▁喝	-1241
原谅	-1242
表情	-1243
▁伴	-1244
伤口	-1245
▁爱是	-1246
an	-1247
地老	-1248
拒绝	-1249
无尽	-1250
的回忆	-1251
▁没有人	-1252
寻觅	-1253
▁求	-1254
宇宙	-1255
▁每个	-1256
变成了	-1257
对你说	-1258
叹息	-1259
▁孤独	-1260
留恋	-1261
也有	-1262
▁L	-1263
后的	-1264
偏偏	-1265
究竟	-1266
下了	-1267
满了	-1268
▁沉	-1269
儿女	-1270
坎坷	-1271
自在	-1272
的美	-1273
才会	-1274
▁再见	-1275
▁但愿	-1276
你却	-1277
春风	-1278
那一	-1279
太过	-1280
走远	-1281
依靠	-1282
委屈	-1283
▁我用	-1284
足够	-1285
▁以	-1286
让我们	-1287
▁过	-1288
漂亮	-1289
走进	-1290
▁错	-1291
相守	-1292
并不	-1293
▁依然	-1294
童话	-1295
ove	-1296
▁能不能	-1297
▁神	-1298
远去	-1299
世上	-1300
欢喜	-1301
▁明明	-1302
▁期待	-1303
说我	-1304
听到	-1305
之前	-1306
▁不要再	-1307
永久	-1308
追逐	-1309
▁火	-1310
的温柔	-1311
▁感情	-1312
最初	-1313
星空	-1314
▁勇敢	-1315
▁以为	-1316
离开我	-1317
爱得	-1318
▁记忆	-1319
▁挥	-1320
答案	-1321
▁默默	-1322
温馨	-1323
停止	-1324
颜色	-1325
有个	-1326
的幸福	-1327
呼唤	-1328
伤痛	-1329
年华	-1330
▁每次	-1331
▁昨	-1332
完全	-1333
一笑	-1334
那样	-1335
承认	-1336
是个	-1337
是什么	-1338
辛苦	-1339
▁有人	-1340
辉煌	-1341
▁t	-1342
不舍	-1343
看着	-1344
这份	-1345
▁突然	-1346
我就	-1347
欢笑	-1348
此刻	-1349
▁走过	-1350
假装	-1351
善良	-1352
千里	-1353
代替	-1354
真爱	-1355
失败	-1356
脸上	-1357
证明	-1358
▁我愿意	-1359
黎明	-1360
爱着你	-1361
的街	-1362
一条	-1363
▁到底	-1364
的声音	-1365
分享	-1366
中华	-1367
终点	-1368
有你的	-1369
▁W	-1370
憔悴	-1371
关心	-1372
依赖	-1373
看不见	-1374
不如	-1375
不用	-1376
▁从来	-1377
▁比	-1378
▁活	-1379
别离	-1380
照片	-1381
忽然	-1382
在你身边	-1383
难忘	-1384
▁踏	-1385
有了	-1386
的海	-1387
▁往事	-1388
▁静静	-1389
信仰	-1390
天真	-1391
aby	-1392
热情	-1393
倔强	-1394
令我	-1395
▁中国	-1396
还会	-1397
相聚	-1398
孤寂	-1399
特别	-1400
▁面对	-1401
▁红尘	-1402
白云	-1403
自然	-1404
▁百	-1405
那么多	-1406
没人	-1407
傻傻	-1408
尘埃	-1409
肩膀	-1410
你的脸	-1411
欺骗	-1412
一眼	-1413
房间	-1414
迷失	-1415
年轻	-1416
愿望	-1417
▁每当	-1418
枯萎	-1419
▁不怕	-1420
▁你说你	-1421
也要	-1422
深情	-1423
ea	-1424
▁都是	-1425
▁送	-1426
一份	-1427
着那	-1428
的记忆	-1429
▁与你	-1430
柔情	-1431
▁往	-1432
想象	-1433
相随	-1434
纠缠	-1435
心跳	-1436
旅行	-1437
▁那个	-1438
▁所有的	-1439
地球	-1440
电影	-1441
一切都	-1442
出了	-1443
无声	-1444
▁给你	-1445
样子	-1446
每一天	-1447
天荒	-1448
▁我真的	-1449
▁H	-1450
不尽	-1451
携手	-1452
视线	-1453
▁风吹	-1454
千万	-1455
光芒	-1456
不要再	-1457
的天空	-1458
▁背	-1459
从未	-1460
蔓延	-1461
▁带着	-1462
流星	-1463
▁Y	-1464
▁s	-1465
迷茫	-1466
花香	-1467
不可以	-1468
沧海	-1469
痴情	-1470
▁而我	-1471
抬头	-1472
更多	-1473
她的	-1474
在我身边	-1475
▁我们一起	-1476
▁不用	-1477
苦苦	-1478
祈祷	-1479
▁故事	-1480
▁常	-1481
▁Oh	-1482
声声	-1483
▁才能	-1484
不是我	-1485
天使	-1486
▁再也	-1487
走在	-1488
这样的	-1489
▁微	-1490
准备	-1491
朦胧	-1492
▁抱	-1493
前方	-1494
没有你	-1495
唱歌	-1496
小小	-1497
▁旧	-1498
▁身	-1499
▁我已经	-1500
▁B	-1501
度过	-1502
温柔的	-1503
▁想念	-1504
一夜	-1505
一样的	-1506
心头	-1507
▁我只想	-1508
花落	-1509
几个	-1510
▁偶尔	-1511
了你的	-1512
▁翻	-1513
打开	-1514
悲哀	-1515
你就	-1516
各自	-1517
大声	-1518
▁这里	-1519
▁的	-1520
记住	-1521
▁金	-1522
留在	-1523
▁可惜	-1524
烟火	-1525
化成	-1526
恭喜	-1527
▁告诉我	-1528
▁酒	-1529
不回	-1530
问题	-1531
说的	-1532
▁但我	-1533
出来	-1534
旅途	-1535
▁窗外	-1536
ay	-1537
光阴	-1538
怪我	-1539
追求	-1540
▁于	-1541
▁自己	-1542
不安	-1543
▁恨	-1544
▁至少	-1545
▁习惯	-1546
▁谢谢你	-1547
无力	-1548
最美	-1549
舞台	-1550
洒脱	-1551
▁独	-1552
望着	-1553
再多	-1554
欢乐	-1555
你们	-1556
过后	-1557
发生	-1558
总会	-1559
远走	-1560
忧愁	-1561
没有人	-1562
说再见	-1563
▁曾经的	-1564
爱到	-1565
▁何时	-1566
▁噢	-1567
创造	-1568
你也	-1569
背后	-1570
的时间	-1571
▁不如	-1572
无言	-1573
▁美丽	-1574
的心情	-1575
不及	-1576
只想	-1577
日夜	-1578
吉祥	-1579
重新	-1580
▁感谢	-1581
想过	-1582
▁我心	-1583
▁我把	-1584
▁泪水	-1585
生命的	-1586
▁花开	-1587
信念	-1588
清醒	-1589
▁祝	-1590
出发	-1591
年少	-1592
相拥	-1593
向你	-1594
过得	-1595
的故事	-1596
不离	-1597
我已	-1598
欣赏	-1599
惆怅	-1600
在我心里	-1601
眼里	-1602
▁跳	-1603
如果	-1604
一分	-1605
▁因为你	-1606
在心底	-1607
每一个	-1608
的路上	-1609
▁晚	-1610
无助	-1611
▁当初	-1612
▁无奈	-1613
依偎	-1614
情深	-1615
等到	-1616
日的	-1617
on	-1618
▁藏	-1619
母亲	-1620
没法	-1621
▁闭上	-1622
可爱	-1623
看我	-1624
残忍	-1625
▁还记得	-1626
健康	-1627
一半	-1628
解脱	-1629
何方	-1630
一首歌	-1631
消息	-1632
▁离	-1633
遇到	-1634
▁你们	-1635
的滋味	-1636
▁不过	-1637
▁其实我	-1638
一丝	-1639
▁正	-1640
▁缘	-1641
节奏	-1642
你能	-1643
都要	-1644
着风	-1645
▁我还是	-1646
▁第	-1647
实在	-1648
▁这世界	-1649
心上	-1650
▁四	-1651
无数	-1652
了吗	-1653
爱上你	-1654
oo	-1655
原地	-1656
将我	-1657
一只	-1658
明月	-1659
▁黑	-1660
的事	-1661
▁兄弟	-1662
试着	-1663
▁但是	-1664
用心	-1665
的好	-1666
▁把你	-1667
的方向	-1668
问候	-1669
什么都	-1670
想到	-1671
着手	-1672
的夜晚	-1673
▁一次	-1674
一道	-1675
流水	-1676
一滴	-1677
▁不愿	-1678
▁相思	-1679
▁原谅	-1680
路口	-1681
▁深深	-1682
▁男	-1683
▁两个人	-1684
到老	-1685
并肩	-1686
▁寒	-1687
▁太阳	-1688
情绪	-1689
大家	-1690
最后的	-1691
真实	-1692
得太	-1693
悲欢	-1694
何处	-1695
的模样	-1696
落叶	-1697
▁我想要	-1698
▁收	-1699
▁温暖	-1700
的眼	-1701
▁古	-1702
这世界	-1703
原来	-1704
▁看着你	-1705
让自己	-1706
北京	-1707
平安	-1708
▁哭	-1709
刹那	-1710
▁a	-1711
▁黄	-1712
是一场	-1713
断了	-1714
几多	-1715
虚伪	-1716
▁S	-1717
▁陪我	-1718
▁朝	-1719
好想	-1720
淹没	-1721
有多少	-1722
白头	-1723
▁谁又	-1724
▁除	-1725
工作	-1726
痴痴	-1727
胸膛	-1728
才是	-1729
▁从前	-1730
▁你的爱	-1731
ll	-1732
一曲	-1733
你还	-1734
只剩	-1735
喜欢你	-1736
▁得	-1737
苦涩	-1738
▁我又	-1739
多想	-1740
见面	-1741
说过	-1742
▁盼	-1743
▁宁愿	-1744
反复	-1745
▁努力	-1746
只要	-1747
▁不敢	-1748
困难	-1749
温度	-1750
绝对	-1751
阻挡	-1752
落在	-1753
心事	-1754
来不及	-1755
隐藏	-1756
▁后	-1757
来过	-1758
天上	-1759
▁d	-1760
▁我最	-1761
道理	-1762
满天	-1763
的思念	-1764
汗水	-1765
我说	-1766
色彩	-1767
▁我爱	-1768
▁h	-1769
清晰	-1770
满足	-1771
白的	-1772
▁寻找	-1773
在梦里	-1774
变了	-1775
忧郁	-1776
看看	-1777
▁甜蜜	-1778
的梦想	-1779
仍然	-1780
▁自由	-1781
很久	-1782
陪着我	-1783
头发	-1784
鲜花	-1785
就是我的	-1786
的大	-1787
▁你不	-1788
▁祝福	-1789
▁现实	-1790
▁不需要	-1791
无边	-1792
去了	-1793
奈何	-1794
坐在	-1795
▁来吧	-1796
我想	-1797
有没有	-1798
伪装	-1799
狼狈	-1800
永远的	-1801
真正	-1802
▁忘掉	-1803
▁有时	-1804
午夜	-1805
▁早已	-1806
笑我	-1807
难受	-1808
▁忍	-1809
▁摇	-1810
幸运	-1811
哈哈	-1812
空虚	-1813
怎能	-1814
的山	-1815
绵绵	-1816
▁你还	-1817
一瞬间	-1818
了吧	-1819
千山	-1820
空间	-1821
过你	-1822
▁我没有	-1823
意外	-1824
▁东	-1825
白发	-1826
痛快	-1827
re	-1828
▁我和你	-1829
伤心的	-1830
全都	-1831
▁太多	-1832
▁沉默	-1833
细雨	-1834
的时光	-1835
煎熬	-1836
就好	-1837
▁守	-1838
▁浮	-1839
无怨	-1840
余生	-1841
▁此刻	-1842
▁甜	-1843
气息	-1844
眼中	-1845
飞扬	-1846
变化	-1847
着你的手	-1848
擦肩	-1849
就算	-1850
浪费	-1851
▁纵然	-1852
一双	-1853
▁付出	-1854
就能	-1855
邂逅	-1856
全世界	-1857
下雨	-1858
▁有多少	-1859
云烟	-1860
▁谁在	-1861
单纯	-1862
哭了	-1863
▁love	-1864
这种	-1865
▁别让	-1866
失眠	-1867
▁谁人	-1868
▁D	-1869
将你	-1870
春秋	-1871
▁我为你	-1872
在心中	-1873
海洋	-1874
▁一定	-1875
看着你	-1876
的一切	-1877
一下	-1878
▁算	-1879
夜空	-1880
使我	-1881
拼命	-1882
来吧	-1883
▁愿你	-1884
不容易	-1885
两个人	-1886
▁对你	-1887
紧握	-1888
不算	-1889
珍贵	-1890
的距离	-1891
▁就在	-1892
辽阔	-1893
曾经的	-1894
来临	-1895
▁我都	-1896
一阵	-1897
情意	-1898
▁M	-1899
一张	-1900
刻骨	-1901
▁转眼	-1902
从不	-1903
父母	-1904
任性	-1905
保留	-1906
知道我	-1907
冲动	-1908
换来	-1909
▁天地	-1910
抱歉	-1911
▁地	-1912
家园	-1913
▁可是我	-1914
逝去	-1915
今世	-1916
释放	-1917
▁我不会	-1918
霓虹	-1919
而过	-1920
啦啦啦	-1921
传奇	-1922
经意	-1923
失望	-1924
▁画	-1925
累了	-1926
重来	-1927
▁命运	-1928
那么的	-1929
回味	-1930
雪花	-1931
这是	-1932
激情	-1933
▁微笑	-1934
指尖	-1935
不顾	-1936
脸庞	-1937
叫做	-1938
▁继续	-1939
变的	-1940
追寻	-1941
▁半	-1942
▁站在	-1943
▁亦	-1944
▁绿	-1945
仰望	-1946
疲倦	-1947
▁有谁	-1948
▁每个人	-1949
到我	-1950
只剩下	-1951
▁你的心	-1952
▁你也	-1953
犹豫	-1954
的笑	-1955
▁月亮	-1956
最好	-1957
风里	-1958
张开	-1959
▁你看	-1960
倾诉	-1961
去爱	-1962
认识	-1963
落下	-1964
过来	-1965
不弃	-1966
无聊	-1967
爱是	-1968
▁寻	-1969
相识	-1970
▁穿越	-1971
我们都	-1972
该怎么	-1973
▁喜	-1974
愉快	-1975
抛开	-1976
是非	-1977
▁再多	-1978
你的温柔	-1979
▁烟	-1980
解释	-1981
▁黑夜	-1982
我和你	-1983
一口	-1984
晚上	-1985
相恋	-1986
走的	-1987
的眼泪	-1988
我一个人	-1989
保护	-1990
▁拿	-1991
胸口	-1992
风光	-1993
必须	-1994
点燃	-1995
的画面	-1996
▁行	-1997
十年	-1998
梦境	-1999
知己	-2000
期望	-2001
闪耀	-2002
雨中	-2003
秋天	-2004
你的时候	-2005
答应	-2006
▁散	-2007
▁狂	-2008
▁只因	-2009
▁世	-2010
挽回	-2011
心灵	-2012
▁真心	-2013
▁蓝	-2014
到永远	-2015
上天	-2016
日记	-2017
语言	-2018
的美丽	-2019
▁发	-2020
颤抖	-2021
坠落	-2022
的理由	-2023
的眼睛	-2024
沉醉	-2025
ing	-2026
▁马	-2027
▁加	-2028
▁我的世界	-2029
▁害怕	-2030
危险	-2031
舍得	-2032
▁每一次	-2033
▁许	-2034
不来	-2035
挥手	-2036
▁月光	-2037
的痛	-2038
的夜里	-2039
▁f	-2040
身上	-2041
这一	-2042
▁天涯	-2043
▁开始	-2044
以前	-2045
我最	-2046
江湖	-2047
▁让爱	-2048
▁拉	-2049
▁茫茫	-2050
▁吃	-2051
漆黑	-2052
纪念	-2053
▁转身	-2054
▁多少次	-2055
▁oh	-2056
了自己	-2057
▁都说	-2058
清晨	-2059
身后	-2060
看透	-2061
▁回头	-2062
走过的	-2063
辜负	-2064
关怀	-2065
旅程	-2066
生死	-2067
▁反正	-2068
这一切	-2069
不需要	-2070
▁歌	-2071
爱着	-2072
▁一天	-2073
摇摆	-2074
浮现	-2075
灯光	-2076
▁可我	-2077
你已	-2078
前行	-2079
还没	-2080
天长地久	-2081
活着	-2082
▁姑娘	-2083
▁有没有	-2084
抛弃	-2085
回眸	-2086
日落	-2087
点亮	-2088
表达	-2089
留住	-2090
我的手	-2091
▁有时候	-2092
忘记你	-2093
是一个	-2094
▁人间	-2095
童年	-2096
划过	-2097
过客	-2098
这首歌	-2099
你去	-2100
勉强	-2101
有谁	-2102
▁等到	-2103
▁停	-2104
醉了	-2105
放不下	-2106
随着	-2107
▁尽管	-2108
我的世界	-2109
慢慢的	-2110
▁远方	-2111
泪滴	-2112
▁天天	-2113
爱恨	-2114
离我	-2115
荡漾	-2116
总有	-2117
暖暖	-2118
逍遥	-2119
最好的	-2120
看不到	-2121
▁渐渐	-2122
▁爱到	-2123
▁爸爸	-2124
▁见	-2125
代表	-2126
空白	-2127
爱恋	-2128
心动	-2129
问你	-2130
▁因为我	-2131
星辰	-2132
▁总有	-2133
▁我就是	-2134
▁出	-2135
▁绝	-2136
呵护	-2137
这一生	-2138
红的	-2139
你是否	-2140
▁我相信	-2141
心疼	-2142
不是你	-2143
想起你	-2144
保持	-2145
的力量	-2146
▁就当	-2147
▁七	-2148
把握	-2149
红了	-2150
开口	-2151
▁我们的爱	-2152
▁回到	-2153
永远不	-2154
▁在那	-2155
▁你让我	-2156
▁这些	-2157
有什么	-2158
升起	-2159
的风景	-2160
▁沿	-2161
像个	-2162
唿吸	-2163
街头	-2164
▁男人	-2165
流年	-2166
▁关于	-2167
▁小小	-2168
不肯	-2169
▁感受	-2170
的苦	-2171
想要的	-2172
平静	-2173
翩翩	-2174
翱翔	-2175
而去	-2176
围绕	-2177
梦的	-2178
等着你	-2179
今夜	-2180
▁没人	-2181
▁凝	-2182
飘落	-2183
热血	-2184
这段	-2185
▁会不会	-2186
▁我可以	-2187
最爱	-2188
欲望	-2189
此生	-2190
▁冲	-2191
句话	-2192
▁人人	-2193
寂寞的	-2194
辗转	-2195
的承诺	-2196
▁照	-2197
▁如果我	-2198
▁叫	-2199
▁这份	-2200
一直在	-2201
▁孤	-2202
感慨	-2203
确定	-2204
不管	-2205
▁穿过	-2206
▁你就是我	-2207
想我	-2208
▁这种	-2209
▁伤心	-2210
▁爱过	-2211
▁说好	-2212
晴天	-2213
▁咱	-2214
万水	-2215
爱人	-2216
▁情人	-2217
▁不知不觉	-2218
不透	-2219
只为	-2220
家的	-2221
▁我依然	-2222
▁看见	-2223
情感	-2224
▁念	-2225
冷的	-2226
了谁	-2227
转眼	-2228
了又	-2229
前世	-2230
和你在一起	-2231
礼物	-2232
▁g	-2233
▁管	-2234
有缘	-2235
的错	-2236
鸟儿	-2237
▁战	-2238
▁拥有	-2239
▁需要	-2240
▁我不要	-2241
旋转	-2242
衣裳	-2243
▁我以为	-2244
▁有一种	-2245
往前	-2246
不对	-2247
亲吻	-2248
▁为我	-2249
却又	-2250
求你	-2251
弥漫	-2252
▁仍然	-2253
的笑容	-2254
▁举	-2255
▁握	-2256
比我	-2257
的快乐	-2258
尽了	-2259
一边	-2260
这些	-2261
▁如此	-2262
掩饰	-2263
▁浪漫	-2264
▁离别	-2265
失恋	-2266
把爱	-2267
躲在	-2268
弯弯	-2269
▁残	-2270
▁看你	-2271
缠绕	-2272
▁知	-2273
也好	-2274
我来	-2275
▁竟	-2276
脾气	-2277
▁也要	-2278
▁香	-2279
伟大	-2280
归来	-2281
窗前	-2282
轻松	-2283
▁丢	-2284
边的	-2285
▁装	-2286
根本	-2287
相连	-2288
▁我只能	-2289
▁可能	-2290
▁数	-2291
▁遥	-2292
新年	-2293
重逢	-2294
天气	-2295
▁n	-2296
依恋	-2297
光明	-2298
百年	-2299
失去了	-2300
山盟	-2301
桑田	-2302
▁放下	-2303
陶醉	-2304
is	-2305
▁隔	-2306
里有	-2307
▁西	-2308
世纪	-2309
▁缘分	-2310
到天	-2311
同行	-2312
▁心情	-2313
江南	-2314
▁为爱	-2315
人群	-2316
你的世界	-2317
澎湃	-2318
一面	-2319
成功	-2320
抱紧	-2321
有天	-2322
▁还要	-2323
世界的	-2324
▁呀	-2325
万年	-2326
迷惘	-2327
编织	-2328
飘荡	-2329
▁也曾	-2330
入睡	-2331
讨厌	-2332
甘心	-2333
占据	-2334
多情	-2335
▁自从	-2336
凄凉	-2337
纷纷	-2338
飞舞	-2339
▁me	-2340
▁每一天	-2341
▁还在	-2342
奋斗	-2343
不上	-2344
咿呀	-2345
镜子	-2346
办法	-2347
如此的	-2348
漫漫	-2349
▁我曾	-2350
你心	-2351
无处	-2352
时空	-2353
的酒	-2354
▁交	-2355
只有你	-2356
冒险	-2357
惊喜	-2358
神秘	-2359
陷入	-2360
快乐的	-2361
▁恋	-2362
胜利	-2363
适合	-2364
▁始终	-2365
大雨	-2366
迷惑	-2367
来生	-2368
汹涌	-2369
牺牲	-2370
▁二	-2371
▁并	-2372
奉献	-2373
跳舞	-2374
宿命	-2375
老去	-2376
▁游	-2377
唯一的	-2378
四方	-2379
在手	-2380
走向	-2381
山河	-2382
▁初	-2383
互相	-2384
▁一片	-2385
▁经	-2386
▁我只是	-2387
好好的	-2388
都是你	-2389
不走	-2390
对不起	-2391
明了	-2392
▁待	-2393
有几	-2394
红颜	-2395
▁才会	-2396
着迷	-2397
▁一年	-2398
▁一点	-2399
走来	-2400
▁奔	-2401
可怜	-2402
祈求	-2403
闪亮	-2404
▁起	-2405
▁我不能	-2406
一身	-2407
诱惑	-2408
▁你曾	-2409
▁干	-2410
▁却又	-2411
言语	-2412
憧憬	-2413
在我心	-2414
▁那就	-2415
狠心	-2416
情缘	-2417
也没有	-2418
▁学	-2419
▁梦中	-2420
▁倾	-2421
尽情	-2422
会不会	-2423
人们	-2424
▁我怎么	-2425
▁紧紧	-2426
▁你总是	-2427
me	-2428
ow	-2429
▁你已	-2430
一定会	-2431
方式	-2432
▁女人	-2433
透明	-2434
▁传	-2435
带我	-2436
▁女	-2437
伤感	-2438
淋湿	-2439
跌倒	-2440
长的	-2441
▁假装	-2442
当年	-2443
一生的	-2444
难免	-2445
不在乎	-2446
可惜	-2447
▁你那	-2448
共同	-2449
穿越	-2450
过我	-2451
▁A	-2452
故意	-2453
背叛	-2454
阵阵	-2455
吸引	-2456
▁我才	-2457
走出	-2458
日出	-2459
缤纷	-2460
▁走在	-2461
蹉跎	-2462
逃离	-2463
▁假如	-2464
▁草原	-2465
▁谁会	-2466
都已	-2467
的那个	-2468
▁记	-2469
放纵	-2470
▁这就是	-2471
傻瓜	-2472
新鲜	-2473
民族	-2474
▁注定	-2475
都没有	-2476
美梦	-2477
释怀	-2478
刺痛	-2479
▁你用	-2480
终究	-2481
▁从未	-2482
▁别让我	-2483
▁哈	-2484
两个	-2485
▁变成	-2486
完美的	-2487
定格	-2488
▁歌声	-2489
的誓言	-2490
点点滴滴	-2491
后退	-2492
▁把我	-2493
▁趁	-2494
▁大家	-2495
▁细	-2496
土地	-2497
的火	-2498
默契	-2499
当作	-2500
好多	-2501
无缘	-2502
的水	-2503
那一天	-2504
的脚步	-2505
▁一辈子	-2506
的岁月	-2507
▁睡	-2508
如画	-2509
鸳鸯	-2510
共你	-2511
天际	-2512
▁我们是	-2513
一般	-2514
神奇	-2515
等我	-2516
计较	-2517
的未来	-2518
▁永	-2519
历史	-2520
清风	-2521
▁南无	-2522
还记得	-2523
脚下	-2524
秋冬	-2525
外面	-2526
眼眸	-2527
都不会	-2528
▁我不是	-2529
再去	-2530
▁偏偏	-2531
▁身边	-2532
太久	-2533
玻璃	-2534
▁一场	-2535
另一个	-2536
▁忘不了	-2537
拥挤	-2538
▁忽然	-2539
▁受	-2540
进了	-2541
因你	-2542
森林	-2543
的爱恋	-2544
该如何	-2545
无常	-2546
我们一起	-2547
▁我很	-2548
▁放弃	-2549
忙碌	-2550
没了	-2551
艰难	-2552
变迁	-2553
抹去	-2554
风霜	-2555
▁昨天	-2556
投入	-2557
胸怀	-2558
错了	-2559
▁只愿	-2560
我的梦	-2561
▁便	-2562
乌云	-2563
唤醒	-2564
▁只剩	-2565
花朵	-2566
▁我多想	-2567
不忘	-2568
未知	-2569
爱了	-2570
▁c	-2571
的味道	-2572
吉他	-2573
挂念	-2574
睁开	-2575
▁温柔	-2576
和你一起	-2577
▁倒	-2578
一把	-2579
可爱的	-2580
快要	-2581
指引	-2582
卑微	-2583
青山	-2584
▁那时	-2585
▁对你的	-2586
的翅膀	-2587
▁明知	-2588
不一样	-2589
▁星	-2590
老的	-2591
▁悄悄	-2592
在身边	-2593
力气	-2594
正在	-2595
想法	-2596
温存	-2597
▁爱恨	-2598
教我	-2599
看得	-2600
说声	-2601
再一次	-2602
挣脱	-2603
爱我的	-2604
▁找不到	-2605
代价	-2606
剧情	-2607
荣耀	-2608
▁这么	-2609
残酷	-2610
蔚蓝	-2611
错误	-2612
▁这样的	-2613
▁讲	-2614
就有	-2615
照顾	-2616
熄灭	-2617
想着	-2618
心扉	-2619
▁事	-2620
原因	-2621
成熟	-2622
街上	-2623
的地	-2624
▁城市	-2625
▁只有你	-2626
无所	-2627
的家	-2628
谁来	-2629
不停的	-2630
▁春风	-2631
刚好	-2632
▁然而	-2633
一句话	-2634
低头	-2635
行囊	-2636
来自	-2637
被爱	-2638
▁学会	-2639
最爱的	-2640
知道你	-2641
滚滚	-2642
▁你走	-2643
▁怎样	-2644
了多少	-2645
伴我	-2646
江山	-2647
▁年轻	-2648
▁心中的	-2649
就是你	-2650
能否	-2651
跟着	-2652
▁来不及	-2653
有一个	-2654
▁好好	-2655
一对	-2656
山水	-2657
繁星	-2658
不由	-2659
到来	-2660
有时	-2661
▁为了你	-2662
遇上	-2663
▁baby	-2664
杯酒	-2665
▁你不要	-2666
▁少	-2667
▁爱上你	-2668
呀呀	-2669
接近	-2670
琴声	-2671
要我	-2672
决心	-2673
处处	-2674
在你身旁	-2675
▁没有你的	-2676
心愿	-2677
▁多年	-2678
离开你	-2679
偶然	-2680
想的	-2681
藏着	-2682
的城市	-2683
的我们	-2684
不说	-2685
某个	-2686
边缘	-2687
▁抬头	-2688
多远	-2689
▁不停	-2690
▁悲伤	-2691
也不会	-2692
▁安	-2693
▁你像	-2694
▁能否	-2695
▁你怎么	-2696
▁擦	-2697
有过	-2698
▁提	-2699
如意	-2700
表白	-2701
不多	-2702
万千	-2703
看不清	-2704
▁本	-2705
却是	-2706
和他	-2707
情话	-2708
认输	-2709
▁星星	-2710
▁无人	-2711
的阳光	-2712
沉重	-2713
▁凭	-2714
▁有你的	-2715
做你的	-2716
▁冰	-2717
▁道	-2718
▁la	-2719
▁渴望	-2720
如梦	-2721
紧张	-2722
阑珊	-2723
▁一步	-2724
▁你若	-2725
复杂	-2726
相偎	-2727
▁照亮	-2728
令人	-2729
更好	-2730
耀眼	-2731
得很	-2732
考验	-2733
散了	-2734
美妙	-2735
▁怀念	-2736
的眼神	-2737
▁我想我	-2738
碎了	-2739
一定要	-2740
▁相爱	-2741
▁犹	-2742
包围	-2743
最深	-2744
相约	-2745
那里	-2746
平淡	-2747
足迹	-2748
那份	-2749
▁才发现	-2750
▁C	-2751
▁那天	-2752
内心的	-2753
精神	-2754
▁燃烧	-2755
▁谁都	-2756
涟漪	-2757
给你的	-2758
▁分开	-2759
聆听	-2760
的自己	-2761
▁每一个	-2762
▁主	-2763
像我	-2764
蜜语	-2765
全力	-2766
看清	-2767
▁有一天	-2768
▁舞	-2769
控制	-2770
在风中	-2771
▁应该	-2772
▁借	-2773
不堪	-2774
你来	-2775
爸妈	-2776
穿过	-2777
▁全世界	-2778
嘴角	-2779
缓缓	-2780
难得	-2781
▁谈	-2782
浪花	-2783
纷飞	-2784
别人的	-2785
起舞	-2786
远离	-2787
彼岸	-2788
▁只剩下	-2789
做的	-2790
沙漠	-2791
▁幻想	-2792
海誓	-2793
▁任凭	-2794
收获	-2795
敷衍	-2796
诗篇	-2797
飞过	-2798
是那么	-2799
上演	-2800
不了你	-2801
▁my	-2802
▁醒来	-2803
打扰	-2804
阴霾	-2805
▁思	-2806
▁到最后	-2807
▁动	-2808
沉睡	-2809
银河	-2810
▁冬	-2811
心酸	-2812
昨日	-2813
▁没有什么	-2814
ry	-2815
▁陪	-2816
守着	-2817
抗拒	-2818
▁爱我	-2819
▁请不要	-2820
东方	-2821
▁我看见	-2822
▁暗	-2823
▁靠	-2824
孤独的	-2825
苍天	-2826
落寞	-2827
▁你有	-2828
▁依	-2829
厌倦	-2830
的云	-2831
▁世间	-2832
▁千年	-2833
▁九	-2834
▁N	-2835
你走	-2836
匆忙	-2837
很好	-2838
▁珍惜	-2839
一盏	-2840
▁望着	-2841
就是我	-2842
对你的爱	-2843
he	-2844
▁耶	-2845
也没	-2846
拼搏	-2847
珍藏	-2848
▁随着	-2849
轻轻的	-2850
深夜	-2851
滴答	-2852
▁充满	-2853
▁只好	-2854
▁陪伴	-2855
▁这一刻	-2856
再说	-2857
宁静	-2858
沙滩	-2859
▁明白	-2860
▁光	-2861
信心	-2862
甘愿	-2863
▁先	-2864
▁血	-2865
对方	-2866
▁我一个人	-2867
一座	-2868
眼眶	-2869
走开	-2870
只会	-2871
忍心	-2872
太深	-2873
▁直	-2874
向我	-2875
▁乘	-2876
团圆	-2877
我又	-2878
轮廓	-2879
▁告别	-2880
一颗心	-2881
▁从今	-2882
埋葬	-2883
姐妹	-2884
无关	-2885
糊涂	-2886
▁花儿	-2887
看到你	-2888
▁你知道	-2889
年纪	-2890
悠扬	-2891
让爱	-2892
风雨雨	-2893
▁我想你	-2894
▁北	-2895
迷离	-2896
▁话	-2897
的瞬间	-2898
荆棘	-2899
▁经历	-2900
不着	-2901
四海	-2902
斑驳	-2903
麻木	-2904
▁一颗	-2905
的长	-2906
▁再次	-2907
一缕	-2908
抓住	-2909
滑落	-2910
▁叫我	-2911
的季节	-2912
来世	-2913
些什么	-2914
让它	-2915
的青春	-2916
完整	-2917
带来	-2918
河水	-2919
表演	-2920
▁你把	-2921
▁让人	-2922
的身影	-2923
雨打	-2924
▁夏	-2925
守望	-2926
聚散	-2927
记起	-2928
▁夕阳	-2929
▁看那	-2930
忘不了	-2931
有爱	-2932
重复	-2933
▁爱情的	-2934
▁而你	-2935
说不出	-2936
怀中	-2937
片片	-2938
▁眼前	-2939
▁没有你	-2940
▁赶	-2941
家人	-2942
离合	-2943
就走	-2944
▁我一直	-2945
▁我不再	-2946
▁可不可以	-2947
崩溃	-2948
笑声	-2949
▁别说	-2950
的天堂	-2951
一方	-2952
▁人们	-2953
▁祝你	-2954
自信	-2955
交错	-2956
人民	-2957
▁就算是	-2958
▁是什么	-2959
▁弹	-2960
寂静	-2961
▁全部	-2962
挫折	-2963
搁浅	-2964
▁放开	-2965
没有了	-2966
▁关	-2967
▁纯	-2968
一再	-2969
枷锁	-2970
真的好	-2971
▁可是你	-2972
▁我知道你	-2973
▁静	-2974
日月	-2975
谁人	-2976
喝醉	-2977
▁哪里	-2978
▁这一生	-2979
能不能	-2980
给自己	-2981
今晚	-2982
触摸	-2983
醒了	-2984
▁树	-2985
▁看看	-2986
爱爱	-2987
触碰	-2988
赞美	-2989
▁怎能	-2990
了这	-2991
伸出	-2992
暧昧	-2993
烟花	-2994
责任	-2995
▁永不	-2996
想着你	-2997
在我心中	-2998
意的	-2999
相对	-3000
▁享受	-3001
夜色	-3002
着泪	-3003
▁最美的	-3004
la	-3005
年年	-3006
谁都	-3007
随便	-3008
地老天荒	-3009
甘情愿	-3010
▁带我	-3011
你是我的	-3012
河流	-3013
许下	-3014
▁春天	-3015
抚平	-3016
缘份	-3017
我却	-3018
▁盼望	-3019
不回头	-3020
我才	-3021
一去	-3022
等着	-3023
雨天	-3024
前进	-3025
对白	-3026
穿梭	-3027
累累	-3028
角色	-3029
狠狠	-3030
▁空气	-3031
从来不	-3032
高山	-3033
好不好	-3034
而已	-3035
▁以后	-3036
▁告诉	-3037
的灵魂	-3038
发呆	-3039
小孩	-3040
手中	-3041
豪情	-3042
降临	-3043
随你	-3044
▁恭喜	-3045
有多么	-3046
▁舍不得	-3047
华丽	-3048
晴朗	-3049
送你	-3050
对我的	-3051
众生	-3052
几分	-3053
消失在	-3054
音符	-3055
▁今生今世	-3056
情怀	-3057
早已经	-3058
毫无	-3059
▁嗡	-3060
加油	-3061
成全	-3062
显得	-3063
是我们	-3064
呐喊	-3065
羡慕	-3066
高飞	-3067
▁偷偷	-3068
ig	-3069
耳朵	-3070
在心头	-3071
不理	-3072
在哪	-3073
▁各	-3074
出口	-3075
的姑娘	-3076
恐惧	-3077
条路	-3078
▁结局	-3079
▁在这个	-3080
▁面	-3081
▁尘	-3082
渺小	-3083
▁一句	-3084
▁用心	-3085
响起	-3086
弥陀	-3087
▁和我	-3088
▁回首	-3089
▁心痛	-3090
失去你	-3091
去看	-3092
微风	-3093
要走	-3094
▁我们在	-3095
▁双	-3096
做个	-3097
多了	-3098
恩怨	-3099
朵朵	-3100
岁岁	-3101
▁那年	-3102
无情的	-3103
的光芒	-3104
住了	-3105
因为你	-3106
▁原谅我	-3107
万语	-3108
▁打开	-3109
▁谁来	-3110
不定	-3111
晚安	-3112
漩涡	-3113
一起走	-3114
只为你	-3115
有太多	-3116
装作	-3117
▁谁说	-3118
▁T	-3119
说出口	-3120
固执	-3121
曲折	-3122
莫名	-3123
难舍	-3124
▁呜	-3125
▁街	-3126
常常	-3127
▁不懂	-3128
▁今晚	-3129
你和我	-3130
每次	-3131
超越	-3132
▁变	-3133
奇怪	-3134
相互	-3135
在心间	-3136
▁解	-3137
人心	-3138
你可	-3139
奇妙	-3140
未曾	-3141
眼光	-3142
总在	-3143
找寻	-3144
▁我还在	-3145
放心	-3146
▁你又	-3147
▁遇见	-3148
的感情	-3149
▁不曾	-3150
▁回家	-3151
▁在我的	-3152
▁经过	-3153
属于我	-3154
哒哒	-3155
神话	-3156
给了	-3157
▁整	-3158
要求	-3159
不在意	-3160
你那	-3161
有的	-3162
菩萨	-3163
我身边	-3164
的歌声	-3165
▁我喜欢	-3166
飘零	-3167
▁也不	-3168
在我身旁	-3169
挂在	-3170
▁一杯	-3171
忍不住	-3172
凋零	-3173
智慧	-3174
漫步	-3175
热的	-3176
也在	-3177
▁风儿	-3178
▁我无法	-3179
他乡	-3180
空中	-3181
强求	-3182
动的	-3183
高兴	-3184
晚霞	-3185
▁一声	-3186
傻傻的	-3187
一支	-3188
软弱	-3189
想你的	-3190
▁看到	-3191
▁简单	-3192
祝福你	-3193
▁敢	-3194
像是	-3195
▁匆匆	-3196
▁可否	-3197
从容	-3198
绚烂	-3199
都能	-3200
▁化作	-3201
为了你	-3202
真的很	-3203
再来	-3204
是那	-3205
湿了	-3206
把自己	-3207
▁想你的	-3208
延续	-3209
▁被你	-3210
慌张	-3211
荒唐	-3212
▁随风	-3213
▁也许你	-3214
回荡	-3215
真诚	-3216
飘飘	-3217
下一个	-3218
出现在	-3219
是不是	-3220
半生	-3221
回应	-3222
提起	-3223
生气	-3224
用力	-3225
漫天	-3226
向前走	-3227
▁剩	-3228
不休	-3229
聪明	-3230
远的	-3231
▁你和我	-3232
it	-3233
浓浓	-3234
约会	-3235
igh	-3236
▁日子	-3237
▁您	-3238
品尝	-3239
来去	-3240
酸甜	-3241
▁乱	-3242
压抑	-3243
早就	-3244
深刻	-3245
起点	-3246
着雨	-3247
整个世界	-3248
不明白	-3249
牵着手	-3250
相爱的	-3251
▁发现	-3252
的结局	-3253
▁一颗心	-3254
▁死	-3255
你别	-3256
娃娃	-3257
寂寥	-3258
藏在	-3259
▁历	-3260
带你	-3261
▁守护	-3262
的脸庞	-3263
喜悦	-3264
懦弱	-3265
明亮	-3266
着了	-3267
不息	-3268
悄然	-3269
是爱	-3270
▁你别	-3271
雨里	-3272
▁哥哥	-3273
不再有	-3274
▁信	-3275
厮守	-3276
好久	-3277
海边	-3278
▁承诺	-3279
▁黑暗	-3280
似水	-3281
奢求	-3282
姿态	-3283
今生的	-3284
彼此的	-3285
喧嚣	-3286
奢望	-3287
知我	-3288
闪躲	-3289
理解	-3290
▁痛苦	-3291
无可	-3292
回不去	-3293
在心上	-3294
人在	-3295
像你	-3296
懵懂	-3297
步伐	-3298
热闹	-3299
不过是	-3300
遥远的	-3301
忍受	-3302
曙光	-3303
比较	-3304
第一	-3305
▁怪	-3306
单身	-3307
啊啊	-3308
对谁	-3309
展翅	-3310
我能	-3311
苍茫	-3312
城堡	-3313
对错	-3314
往日	-3315
爱就	-3316
▁后来	-3317
▁爱你的	-3318
摇曳	-3319
无尽的	-3320
动人	-3321
道路	-3322
不可能	-3323
▁龙	-3324
残留	-3325
般的	-3326
▁繁华	-3327
▁恍	-3328
推开	-3329
滚烫	-3330
▁你给	-3331
我为你	-3332
一生一世	-3333
璀璨	-3334
▁能够	-3335
说什么	-3336
▁难道你	-3337
中央	-3338
公主	-3339
或许	-3340
不小心	-3341
▁悠悠	-3342
流过	-3343
爱意	-3344
▁也会	-3345
▁天下	-3346
▁英雄	-3347
忘记了	-3348
发觉	-3349
得起	-3350
月色	-3351
嘲笑	-3352
▁这是我	-3353
▁G	-3354
感谢	-3355
烈酒	-3356
▁蝴蝶	-3357
的人生	-3358
▁某	-3359
不散	-3360
▁新年	-3361
手牵手	-3362
完成	-3363
我有	-3364
暴雨	-3365
▁也许是	-3366
天生	-3367
把它	-3368
▁坚持	-3369
▁流浪	-3370
的香	-3371
▁究竟	-3372
的伤口	-3373
▁我们之间	-3374
摧毁	-3375
故人	-3376
新娘	-3377
安静的	-3378
屋檐	-3379
门前	-3380
▁一段	-3381
感觉到	-3382
的心愿	-3383
出去	-3384
那片	-3385
▁嗨	-3386
已是	-3387
苍白	-3388
飘过	-3389
自由的	-3390
断肠	-3391
沸腾	-3392
▁我能	-3393
▁此生	-3394
拥有你	-3395
▁感谢你	-3396
▁惊	-3397
有情	-3398
空空	-3399
节拍	-3400
和你的	-3401
▁头	-3402
树下	-3403
父亲	-3404
心里的	-3405
▁你就是	-3406
爹娘	-3407
伤透	-3408
不分离	-3409
▁一次次	-3410
▁尝	-3411
发芽	-3412
埋怨	-3413
好过	-3414
快快	-3415
老了	-3416
莲花	-3417
开放	-3418
明媚	-3419
更改	-3420
▁我没	-3421
▁选择	-3422
▁八	-3423
▁欲	-3424
你最	-3425
社会	-3426
运气	-3427
▁没法	-3428
▁走进	-3429
▁我站在	-3430
暮暮	-3431
甜言	-3432
目标	-3433
目的	-3434
▁情愿	-3435
的旋律	-3436
落花	-3437
长久	-3438
▁只怕	-3439
▁无数	-3440
夏秋冬	-3441
▁啦啦啦	-3442
▁一生一世	-3443
不自	-3444
太快	-3445
很远	-3446
见证	-3447
门外	-3448
去想	-3449
感伤	-3450
说谎	-3451
▁也是	-3452
恋人	-3453
▁由	-3454
听我	-3455
路过	-3456
风流	-3457
写下	-3458
玩笑	-3459
的老	-3460
荒芜	-3461
▁忽	-3462
▁逃	-3463
掩埋	-3464
▁虚	-3465
做到	-3466
几年	-3467
什么时候	-3468
▁这个世界	-3469
争吵	-3470
脸颊	-3471
风筝	-3472
当时	-3473
回忆里	-3474
▁所以我	-3475
飘散	-3476
▁妹妹	-3477
▁桃花	-3478
也不想	-3479
主宰	-3480
挑战	-3481
枝头	-3482
▁灵魂	-3483
▁爱在	-3484
▁这次	-3485
人都	-3486
黑白	-3487
▁这一	-3488
下个	-3489
▁天上	-3490
▁啦	-3491
去追	-3492
▁新的	-3493
每个人	-3494
▁在你的	-3495
▁洒	-3496
失了	-3497
▁唯有	-3498
的结果	-3499
el	-3500
▁归	-3501
世的	-3502
之外	-3503
了就	-3504
摆脱	-3505
▁你的笑容	-3506
才有	-3507
拜拜	-3508
的情歌	-3509
的泪水	-3510
▁那是我	-3511
抚摸	-3512
轻狂	-3513
▁一切都	-3514
不经意	-3515
▁是你的	-3516
▁坐	-3517
命中	-3518
意思	-3519
这个世界	-3520
鼓励	-3521
对自己	-3522
▁有一个	-3523
入梦	-3524
痴迷	-3525
▁跟着	-3526
深深的	-3527
寒冷	-3528
对着	-3529
▁许多	-3530
▁我不愿	-3531
片段	-3532
跨越	-3533
▁君	-3534
拯救	-3535
男孩	-3536
▁我是你的	-3537
分钟	-3538
▁知道	-3539
▁那里	-3540
弥陀佛	-3541
▁儿	-3542
放肆	-3543
▁不在乎	-3544
游荡	-3545
▁潮	-3546
愈合	-3547
▁不见	-3548
▁吻	-3549
脚印	-3550
▁我将	-3551
的尽头	-3552
or	-3553
包容	-3554
▁一曲	-3555
▁多希望	-3556
又一	-3557
往昔	-3558
而来	-3559
铭心	-3560
▁年少	-3561
▁生死	-3562
算什么	-3563
你在哪里	-3564
没有你的	-3565
er	-3566
无穷	-3567
陌生人	-3568
把心	-3569
▁跟我	-3570
的人们	-3571
牵你的手	-3572
放在	-3573
已成	-3574
月下	-3575
百姓	-3576
也能	-3577
眼角	-3578
过程	-3579
▁我怕	-3580
▁雪花	-3581
▁不想再	-3582
▁躲	-3583
的星	-3584
▁平凡	-3585
▁还能	-3586
的美好	-3587
安全	-3588
江水	-3589
炊烟	-3590
到处	-3591
心间	-3592
等于	-3593
坦白	-3594
成双	-3595
找个	-3596
掠过	-3597
白天	-3598
萦绕	-3599
▁牵手	-3600
的那些	-3601
▁我对你	-3602
ey	-3603
▁且	-3604
开花	-3605
纯真	-3606
▁来来来	-3607
生命中	-3608
就不	-3609
eah	-3610
▁若是	-3611
岁月的	-3612
港湾	-3613
▁宝贝	-3614
的朋友	-3615
▁饮	-3616
伊人	-3617
琴弦	-3618
都没	-3619
▁不该	-3620
▁谢谢	-3621
一个梦	-3622
▁只是我	-3623
同样	-3624
当做	-3625
高高	-3626
主角	-3627
迎接	-3628
▁心跳	-3629
冰冷的	-3630
的微笑	-3631
世事	-3632
动着	-3633
痴狂	-3634
也不能	-3635
▁灰	-3636
听你	-3637
▁美好的	-3638
年代	-3639
▁属于	-3640
第一次	-3641
埋藏	-3642
梦幻	-3643
说了	-3644
▁我要你	-3645
▁是我的	-3646
回去	-3647
千年的	-3648
流转	-3649
初心	-3650
▁追逐	-3651
天涯海角	-3652
▁猜	-3653
兴奋	-3654
联系	-3655
▁终究	-3656
的玫瑰	-3657
体贴	-3658
得不到	-3659
▁执	-3660
如水	-3661
▁不断	-3662
▁虽	-3663
妄想	-3664
▁无所谓	-3665
茫然	-3666
迷恋	-3667
▁昨夜	-3668
孤单的	-3669
▁也许我	-3670
一幕	-3671
沉沦	-3672
痛的	-3673
笑的	-3674
▁或者	-3675
▁爱与	-3676
向远方	-3677
梦中的	-3678
夜深	-3679
束缚	-3680
一分钟	-3681
动人的	-3682
已不再	-3683
凋谢	-3684
说好	-3685
拥抱你	-3686
▁我是你	-3687
▁我曾经	-3688
沧海桑田	-3689
虔诚	-3690
难道	-3691
▁完全	-3692
▁看不见	-3693
珍重	-3694
都市	-3695
闪闪	-3696
魅力	-3697
▁祖国	-3698
到你的	-3699
▁刻	-3700
撕裂	-3701
相同	-3702
心里面	-3703
生命里	-3704
脑海里	-3705
妥协	-3706
手机	-3707
春光	-3708
热爱	-3709
蓦然	-3710
钟声	-3711
▁千万	-3712
不变的	-3713
▁这一次	-3714
▁叹	-3715
比你	-3716
走走	-3717
▁太多的	-3718
当天	-3719
洋洋	-3720
火焰	-3721
淡淡的	-3722
甜甜	-3723
长发	-3724
非常	-3725
▁我是一	-3726
▁没什么	-3727
为难	-3728
摇晃	-3729
渡过	-3730
冬季	-3731
动听	-3732
说着	-3733
▁错过	-3734
不应该	-3735
▁希望你	-3736
▁什么时候	-3737
▁化	-3738
兑现	-3739
片刻	-3740
生长	-3741
铭记	-3742
锦绣	-3743
▁千里	-3744
▁不是我	-3745
了我的心	-3746
▁强	-3747
和平	-3748
的目光	-3749
万丈	-3750
眺望	-3751
▁携手	-3752
在眼前	-3753
的孩子	-3754
冷静	-3755
恨你	-3756
替代	-3757
窒息	-3758
▁总会	-3759
永恒的	-3760
▁幸福的	-3761
亲人	-3762
开怀	-3763
要去	-3764
那段	-3765
▁重新	-3766
▁破	-3767
乖乖	-3768
荒凉	-3769
送给你	-3770
▁第一次	-3771
气氛	-3772
牵绊	-3773
真相	-3774
▁这段	-3775
我很	-3776
▁孩子	-3777
▁无声	-3778
▁乐	-3779
▁逆	-3780
填满	-3781
层层	-3782
这场	-3783
走下去	-3784
伴侣	-3785
做你	-3786
变老	-3787
▁走到	-3788
不能再	-3789
▁车	-3790
寄托	-3791
畏惧	-3792
起头	-3793
▁剪	-3794
烟雨	-3795
哪个	-3796
最终	-3797
秋风	-3798
▁你永远	-3799
地久天长	-3800
▁我不知道	-3801
丢了	-3802
从头	-3803
成就	-3804
梦醒	-3805
▁哎呀	-3806
看见你	-3807
▁闭上眼	-3808
战场	-3809
满地	-3810
漂流	-3811
▁唱着	-3812
▁江湖	-3813
▁You	-3814
不离不弃	-3815
无怨无悔	-3816
哀愁	-3817
的红	-3818
▁你总	-3819
▁音乐	-3820
变幻	-3821
都很	-3822
▁夜色	-3823
▁爱得	-3824
掉了	-3825
▁少年	-3826
▁真情	-3827
不快乐	-3828
▁悲	-3829
月圆	-3830
模煳	-3831
每一	-3832
舞蹈	-3833
越深	-3834
随时	-3835
伤的	-3836
怎会	-3837
酒杯	-3838
▁难以	-3839
是多么	-3840
通通	-3841
▁我像	-3842
你又	-3843
凝望	-3844
提醒	-3845
花瓣	-3846
▁抛开	-3847
留下的	-3848
默默的	-3849
到达	-3850
友谊	-3851
找回	-3852
在这个	-3853
天荒地老	-3854
出的	-3855
思量	-3856
泛黄	-3857
▁故乡	-3858
▁伤心的	-3859
抱着你	-3860
不太	-3861
天亮	-3862
就此	-3863
惩罚	-3864
文明	-3865
进入	-3866
▁喜欢你	-3867
住在	-3868
死心	-3869
满面	-3870
谱写	-3871
逞强	-3872
▁还没	-3873
▁你对我	-3874
▁你给我	-3875
▁你给的	-3876
▁还有什么	-3877
▁曲	-3878
人来	-3879
斜阳	-3880
有一点	-3881
的背影	-3882
不留	-3883
午后	-3884
这一刻	-3885
天晴	-3886
...	-3887
▁对我	-3888
▁左	-3889
面具	-3890
▁相遇	-3891
离不开	-3892
凤凰	-3893
家里	-3894
得我	-3895
抱着	-3896
飘香	-3897
一次次	-3898
不顾身	-3899
▁对不起	-3900
▁我终于	-3901
妩媚	-3902
深渊	-3903
王子	-3904
▁美好	-3905
再也不	-3906
▁轻轻的	-3907
▁我的心里	-3908
的心跳	-3909
凌晨	-3910
担当	-3911
▁呼吸	-3912
▁你就是我的	-3913
分别	-3914
懂我	-3915
掩盖	-3916
鱼儿	-3917
失意	-3918
笑话	-3919
▁明月	-3920
不后悔	-3921
梦一场	-3922
▁大声	-3923
▁誓言	-3924
交换	-3925
崎岖	-3926
防备	-3927
▁如若	-3928
你是我	-3929
▁我只要	-3930
照耀	-3931
生日	-3932
▁中华	-3933
▁含	-3934
远处	-3935
倾听	-3936
安康	-3937
来得	-3938
▁有个	-3939
你的美	-3940
勇敢的	-3941
无路	-3942
荡荡	-3943
▁就要	-3944
▁这些年	-3945
▁只怪	-3946
一个你	-3947
不到你	-3948
甜蜜的	-3949
统统	-3950
苦辣	-3951
遍地	-3952
雄鹰	-3953
▁绽放	-3954
会是	-3955
承担	-3956
流逝	-3957
疼痛	-3958
迷雾	-3959
门口	-3960
的太阳	-3961
奋不顾身	-3962
将来	-3963
收藏	-3964
路人	-3965
都想	-3966
▁又是	-3967
迷人的	-3968
散落	-3969
狂风	-3970
过多少	-3971
▁毕	-3972
传递	-3973
的雪	-3974
网络	-3975
那是	-3976
阿哥	-3977
▁茫茫人海	-3978
▁齐	-3979
余温	-3980
千百	-3981
绚丽	-3982
领悟	-3983
我的人	-3984
的心灵	-3985
的情绪	-3986
▁我永远	-3987
▁因为有你	-3988
▁试	-3989
喝彩	-3990
▁人海	-3991
你我的	-3992
的角落	-3993
不爱我	-3994
爱着我	-3995
乱了	-3996
笑语	-3997
▁就会	-3998
思念的	-3999
▁慢慢的	-4000
▁那一天	-4001
回到从前	-4002
感激	-4003
▁常常	-4004
多余	-4005
又一年	-4006
▁在一起	-4007
相会	-4008
▁剩下	-4009
▁眼睛	-4010
的希望	-4011
丝丝	-4012
形容	-4013
挥霍	-4014
▁遗憾	-4015
去面对	-4016
你好	-4017
华夏	-4018
圆满	-4019
时分	-4020
活在	-4021
怎么样	-4022
▁不会再	-4023
困惑	-4024
水长	-4025
能量	-4026
▁于是	-4027
伴随	-4028
▁无尽	-4029
我已经	-4030
见到你	-4031
▁Baby	-4032
▁把爱	-4033
▁爱人	-4034
▁玫瑰	-4035
日夜夜	-4036
只好	-4037
跟随	-4038
跳动	-4039
这片	-4040
那年	-4041
一幅	-4042
描绘	-4043
泪痕	-4044
走越	-4045
逐渐	-4046
▁对你的爱	-4047
▁尽情	-4048
的路口	-4049
枫叶	-4050
美酒	-4051
老婆	-4052
的寂寞	-4053
▁夜深	-4054
给你听	-4055
最爱的人	-4056
▁映	-4057
村庄	-4058
犯错	-4059
过去的	-4060
入眠	-4061
又是	-4062
又能	-4063
肯定	-4064
▁一样	-4065
我不想	-4066
留给我	-4067
不动	-4068
地上	-4069
沉淀	-4070
难收	-4071
就不会	-4072
这就是	-4073
呼喊	-4074
美景	-4075
走吧	-4076
ome	-4077
▁透	-4078
从没	-4079
割舍	-4080
和谐	-4081
流下	-4082
忘不掉	-4083
问自己	-4084
▁爱你的心	-4085
ar	-4086
琵琶	-4087
不愿意	-4088
每一次	-4089
▁有什么	-4090
世世	-4091
令你	-4092
冷清	-4093
相处	-4094
能为	-4095
落泪	-4096
才知道	-4097
一看	-4098
也很	-4099
优雅	-4100
异乡	-4101
得好	-4102
全是	-4103
浮沉	-4104
消散	-4105
风雪	-4106
et	-4107
和她	-4108
艰辛	-4109
在何方	-4110
的笑脸	-4111
情节	-4112
敞开	-4113
生的	-4114
着我们	-4115
学习	-4116
热烈	-4117
蓝蓝	-4118
言万语	-4119
静静的	-4120
▁遗	-4121
万物	-4122
不归	-4123
伴你	-4124
喧闹	-4125
寒冬	-4126
感应	-4127
▁奈何	-4128
不能够	-4129
世界里	-4130
▁我不怕	-4131
▁我们要	-4132
使命	-4133
每秒	-4134
练习	-4135
▁梦醒	-4136
的表情	-4137
美人	-4138
▁为何你	-4139
▁断	-4140
▁我需要	-4141
▁拼	-4142
清澈	-4143
盛世	-4144
胜过	-4145
在身旁	-4146
给我一个	-4147
牵着你的手	-4148
停下	-4149
黑夜里	-4150
▁我总是	-4151
一心	-4152
去闯	-4153
唱起	-4154
结尾	-4155
翼翼	-4156
▁白云	-4157
够了	-4158
想想	-4159
▁像是	-4160
▁长大	-4161
▁恩	-4162
一日	-4163
忘却	-4164
爱的你	-4165
许下的	-4166
▁洗	-4167
▁最好	-4168
为你而	-4169
伤疤	-4170
听着	-4171
爱他	-4172
石头	-4173
▁情深	-4174
▁秋风	-4175
▁陌生	-4176
人生的	-4177
▁拨	-4178
我没	-4179
梨花	-4180
归期	-4181
▁从此以后	-4182
风儿	-4183
▁有点	-4184
我一生	-4185
▁陪着你	-4186
▁书	-4187
放松	-4188
夜夜	-4189
普通	-4190
高原	-4191
▁飞过	-4192
住你	-4193
某天	-4194
滋润	-4195
在等待	-4196
▁你就像	-4197
▁灯	-4198
湖水	-4199
资格	-4200
▁所谓	-4201
女子	-4202
时常	-4203
真意	-4204
花谢	-4205
身躯	-4206
还没有	-4207
上你	-4208
上帝	-4209
忍耐	-4210
泪眼	-4211
白了	-4212
▁世上	-4213
再会	-4214
动作	-4215
呀飞	-4216
归宿	-4217
文化	-4218
是好	-4219
苍穹	-4220
轰烈	-4221
在那里	-4222
▁只留下	-4223
▁浪	-4224
发光	-4225
四处	-4226
是错	-4227
颓废	-4228
▁放手	-4229
▁F	-4230
传来	-4231
和雨	-4232
哦哦	-4233
▁有你在	-4234
我们的爱	-4235
▁你的温柔	-4236
▁圣	-4237
▁温	-4238
不改	-4239
如雨	-4240
痛楚	-4241
自私	-4242
退缩	-4243
▁从不	-4244
反复复	-4245
学会了	-4246
▁偏	-4247
双飞	-4248
如烟	-4249
想去	-4250
烈火	-4251
▁难忘	-4252
给了我	-4253
一位	-4254
刻意	-4255
阿妹	-4256
▁不可	-4257
▁消失	-4258
在了	-4259
思想	-4260
男儿	-4261
▁他的	-4262
我心中	-4263
▁佛	-4264
▁合	-4265
无比	-4266
浅浅	-4267
满满	-4268
想念你	-4269
▁明知道	-4270
三千	-4271
也无	-4272
几次	-4273
我这	-4274
抱怨	-4275
▁爱已	-4276
能为力	-4277
▁才知道	-4278
什么都不	-4279
▁怀	-4280
残缺	-4281
泪光	-4282
苹果	-4283
▁若你	-4284
▁阿哥	-4285
习惯了	-4286
爱已	-4287
那种	-4288
生活的	-4289
走着	-4290
魂牵	-4291
▁不论	-4292
▁亲爱的你	-4293
干脆	-4294
相望	-4295
苦再	-4296
起落	-4297
▁明日	-4298
▁痴心	-4299
亏欠	-4300
坚守	-4301
▁最怕	-4302
听不见	-4303
的事情	-4304
▁熟悉的	-4305
一壶	-4306
害羞	-4307
富贵	-4308
谁在	-4309
风轻	-4310
▁最终	-4311
▁点燃	-4312
你的人	-4313
我的脸	-4314
▁我好想	-4315
▁你会不会	-4316
位置	-4317
抵抗	-4318
越是	-4319
颠倒	-4320
▁我好	-4321
▁我该	-4322
▁越是	-4323
▁再一次	-4324
▁哥	-4325
悲剧	-4326
的样子	-4327
我们之间	-4328
失控	-4329
有着	-4330
石烂	-4331
干了	-4332
相隔	-4333
纠结	-4334
重重	-4335
多一点	-4336
用一生	-4337
的甜蜜	-4338
奔波	-4339
我好	-4340
苦恼	-4341
▁谁知	-4342
▁越过	-4343
忘了我	-4344
的人啊	-4345
压力	-4346
抚慰	-4347
芳香	-4348
▁种	-4349
分秒	-4350
扬起	-4351
无意	-4352
来说	-4353
烛光	-4354
▁很多	-4355
▁记住	-4356
为了谁	-4357
了一个	-4358
做梦	-4359
天意	-4360
循环	-4361
魔力	-4362
▁愿意	-4363
▁身体	-4364
▁献	-4365
▁站	-4366
千古	-4367
无语	-4368
流连	-4369
ight	-4370
▁久	-4371
义无	-4372
小巷	-4373
庆幸	-4374
越过	-4375
▁但你	-4376
▁模糊	-4377
青春的	-4378
▁隐	-4379
爱与	-4380
飞向	-4381
不会有	-4382
掉眼泪	-4383
时间的	-4384
▁刀	-4385
▁方	-4386
凌乱	-4387
或是	-4388
话语	-4389
▁全都	-4390
▁无谓	-4391
▁过了	-4392
所措	-4393
注意	-4394
的不	-4395
陌路	-4396
没什么	-4397
爱上了你	-4398
us	-4399
一无	-4400
几回	-4401
碎片	-4402
▁到处	-4403
▁灿烂	-4404
有多远	-4405
▁但是我	-4406
祝愿	-4407
路途	-4408
躺在	-4409
ood	-4410
说的话	-4411
▁六	-4412
唱出	-4413
坚决	-4414
宽广	-4415
▁决定	-4416
▁恋爱	-4417
▁欢迎	-4418
▁谁的	-4419
才明白	-4420
朝暮暮	-4421
回望	-4422
太难	-4423
替我	-4424
负担	-4425
雪月	-4426
才发现	-4427
说过的	-4428
▁贪	-4429
活得	-4430
竟然	-4431
轻轻地	-4432
▁我宁愿	-4433
▁你可知道	-4434
下我	-4435
如花	-4436
洒满	-4437
爱她	-4438
眉头	-4439
绝情	-4440
渐远	-4441
▁你还是	-4442
相牵	-4443
笑颜	-4444
▁唱出	-4445
▁随便	-4446
的空气	-4447
平线	-4448
彩云	-4449
忽略	-4450
明明	-4451
在耳边	-4452
展开	-4453
无恙	-4454
本来	-4455
以为你	-4456
▁捧	-4457
在梦中	-4458
看着我	-4459
记得我	-4460
▁凡	-4461
不语	-4462
覆盖	-4463
面容	-4464
▁你听	-4465
▁前世	-4466
▁大地	-4467
▁这一切	-4468
不错	-4469
亮了	-4470
误会	-4471
▁落叶	-4472
你的笑容	-4473
不问	-4474
口袋	-4475
无际	-4476
真假	-4477
▁你说我	-4478
▁请你不要	-4479
▁我们的爱情	-4480
天黑	-4481
柔软	-4482
▁对着	-4483
▁迷失	-4484
一场梦	-4485
的勇气	-4486
都可以	-4487
▁怎么会	-4488
人静	-4489
逗留	-4490
伤害我	-4491
找到你	-4492
风吹过	-4493
▁中	-4494
▁刚	-4495
坠入	-4496
被我	-4497
跌跌	-4498
▁烦恼	-4499
▁我也不	-4500
▁玩	-4501
伸手	-4502
场景	-4503
▁昨日	-4504
▁青山	-4505
想起我	-4506
我一个	-4507
留不住	-4508
的月亮	-4509
召唤	-4510
嘟嘟	-4511
快活	-4512
景色	-4513
长夜	-4514
▁go	-4515
▁开心	-4516
▁张开	-4517
当成	-4518
整夜	-4519
暂时	-4520
然后	-4521
规则	-4522
踏上	-4523
转动	-4524
在路上	-4525
我心里	-4526
那一刻	-4527
▁你已经	-4528
▁意	-4529
云彩	-4530
体温	-4531
作伴	-4532
手心	-4533
浪漫的	-4534
▁心里的	-4535
难分	-4536
属于你	-4537
▁其实你	-4538
人往	-4539
冷暖	-4540
去的	-4541
它的	-4542
梦见	-4543
那时	-4544
▁共同	-4545
▁思绪	-4546
你的好	-4547
属于我的	-4548
勇往	-4549
嘿嘿	-4550
态度	-4551
悔恨	-4552
虚假	-4553
▁你想	-4554
雨季	-4555
▁要我	-4556
的房间	-4557
你的名字	-4558
▁想着你	-4559
不甘	-4560
少了	-4561
麻烦	-4562
▁会有	-4563
▁前方	-4564
▁是谁在	-4565
无忧	-4566
▁看我	-4567
说出来	-4568
不老	-4569
痛了	-4570
难眠	-4571
到永久	-4572
无畏	-4573
每日	-4574
芳华	-4575
解药	-4576
风的	-4577
命运的	-4578
最大的	-4579
▁教	-4580
不朽	-4581
▁就能	-4582
▁越来越	-4583
▁临	-4584
苏醒	-4585
▁紧握	-4586
▁呼	-4587
▁国	-4588
伴着	-4589
其中	-4590
很美	-4591
▁心碎	-4592
▁流星	-4593
一个家	-4594
心窝	-4595
老天	-4596
速度	-4597
▁双手	-4598
▁多情	-4599
▁那时候	-4600
▁剑	-4601
堆积	-4602
太远	-4603
懂了	-4604
▁难得	-4605
等你来	-4606
给了你	-4607
▁台	-4608
▁诗	-4609
同在	-4610
好了	-4611
联络	-4612
▁感动	-4613
▁祈求	-4614
也曾	-4615
孩儿	-4616
很难	-4617
最近	-4618
迷人	-4619
雨水	-4620
▁依旧	-4621
▁请别	-4622
的拥抱	-4623
▁我也会	-4624
▁城	-4625
▁痴	-4626
晚餐	-4627
电视	-4628
迷路	-4629
▁总在	-4630
▁生生	-4631
▁笑容	-4632
忘了你	-4633
20	-4634
▁偷	-4635
▁顺	-4636
两行	-4637
云朵	-4638
我只	-4639
河边	-4640
▁小心	-4641
往前走	-4642
我不会	-4643
哭着	-4644
往下	-4645
挂牵	-4646
掌声	-4647
没能	-4648
皱纹	-4649
轻声	-4650
▁夜夜	-4651
▁随时	-4652
春天的	-4653
着我的手	-4654
唿唤	-4655
甚至	-4656
花园	-4657
辛酸	-4658
的明天	-4659
的话语	-4660
简单单	-4661
常在	-4662
过头	-4663
▁我看	-4664
▁苦苦	-4665
的过去	-4666
▁从来不	-4667
▁多少人	-4668
▁就让我们	-4669
一抹	-4670
列车	-4671
慈悲	-4672
报答	-4673
聊天	-4674
落幕	-4675
▁听说	-4676
▁有我	-4677
▁笑着	-4678
在远方	-4679
的伤痕	-4680
的那一天	-4681
▁撕	-4682
世俗	-4683
奔向	-4684
▁一遍	-4685
▁清风	-4686
亲相爱	-4687
去流浪	-4688
▁一点点	-4689
▁只因为	-4690
我的身边	-4691
▁铁	-4692
撞撞	-4693
无谓	-4694
▁北京	-4695
▁我从	-4696
▁真爱	-4697
▁你可以	-4698
简简单单	-4699
为他	-4700
名利	-4701
捉弄	-4702
▁令我	-4703
▁理想	-4704
小小的	-4705
悲欢离合	-4706
爱你的人	-4707
冷冷	-4708
沐浴	-4709
灌溉	-4710
精灵	-4711
都说	-4712
▁善	-4713
前程	-4714
对待	-4715
甚么	-4716
走一	-4717
魔鬼	-4718
▁期望	-4719
我真的	-4720
心相	-4721
白雪	-4722
艳阳	-4723
谁会	-4724
▁清晨	-4725
▁走出	-4726
还好吗	-4727
叫人	-4728
抵挡	-4729
▁入	-4730
▁演	-4731
十八	-4732
团结	-4733
我俩	-4734
温热	-4735
落魄	-4736
行李	-4737
▁星光	-4738
怎么说	-4739
的女人	-4740
后来	-4741
毁灭	-4742
满身	-4743
疼你	-4744
高歌	-4745
▁徘徊	-4746
▁无限	-4747
中国梦	-4748
▁草	-4749
▁野	-4750
一千	-4751
前路	-4752
诚实	-4753
▁想想	-4754
堕落	-4755
幻觉	-4756
无踪	-4757
脑袋	-4758
▁内心	-4759
▁无言	-4760
▁眼神	-4761
▁引	-4762
信任	-4763
▁to	-4764
▁改变	-4765
到白头	-4766
的颜色	-4767
▁你的笑	-4768
一线	-4769
做了	-4770
制造	-4771
▁OH	-4772
又如何	-4773
抬起头	-4774
▁不过是	-4775
永远不会	-4776
▁划	-4777
战斗	-4778
的时刻	-4779
▁Love	-4780
▁我是真的	-4781
柔柔	-4782
盘旋	-4783
▁为谁	-4784
深情的	-4785
▁暖	-4786
▁结	-4787
住我	-4788
依稀	-4789
哭过	-4790
浩瀚	-4791
风浪	-4792
麻醉	-4793
说爱我	-4794
没有什么	-4795
▁如果有一天	-4796
咫尺	-4797
好运	-4798
是对	-4799
画卷	-4800
青丝	-4801
飞机	-4802
▁飞向	-4803
▁忘记了	-4804
和谁	-4805
或者	-4806
撒娇	-4807
汪汪	-4808
疑问	-4809
你爱我	-4810
同样的	-4811
▁烧	-4812
依依	-4813
光辉	-4814
周围	-4815
朝夕	-4816
用尽	-4817
逃脱	-4818
勤劳	-4819
友情	-4820
姐姐	-4821
水中	-4822
爱谁	-4823
▁万里	-4824
▁人在	-4825
▁余生	-4826
为你唱	-4827
把你忘记	-4828
▁啦啦啦啦啦啦	-4829
月的	-4830
真挚	-4831
▁试着	-4832
短暂的	-4833
命中注定	-4834
哀乐	-4835
忍住	-4836
相片	-4837
▁得到	-4838
▁找到	-4839
▁有了	-4840
▁热情	-4841
骗自己	-4842
擦肩而过	-4843
泡沫	-4844
耶稣	-4845
自尊	-4846
的秘密	-4847
▁木	-4848
丰收	-4849
又何	-4850
我吧	-4851
留给	-4852
说说	-4853
远航	-4854
▁很想	-4855
你的笑	-4856
昨天的	-4857
▁低	-4858
世人	-4859
因果	-4860
散场	-4861
飘扬	-4862
▁想着	-4863
▁诉说	-4864
▁谁也	-4865
泛起	-4866
▁期盼	-4867
▁让自己	-4868
▁总有一天	-4869
▁淡	-4870
一吻	-4871
刺激	-4872
反顾	-4873
无眠	-4874
极限	-4875
直前	-4876
黄河	-4877
▁那种	-4878
做什么	-4879
的歌谣	-4880
一块	-4881
原点	-4882
得你	-4883
末日	-4884
▁别人	-4885
▁听着	-4886
▁输	-4887
一地	-4888
你手	-4889
当我	-4890
晨曦	-4891
海里	-4892
停留在	-4893
我没有	-4894
▁不经意	-4895
▁给我一个	-4896
▁作	-4897
发展	-4898
无论	-4899
松开	-4900
笑了	-4901
▁几多	-4902
▁日夜	-4903
并不是	-4904
▁我开始	-4905
▁玉	-4906
不醉	-4907
卸下	-4908
窗台	-4909
遥望	-4910
悬崖	-4911
▁过往	-4912
不停地	-4913
悄悄的	-4914
枯石烂	-4915
▁变得	-4916
▁年年	-4917
▁让它	-4918
爱过的	-4919
▁载	-4920
休息	-4921
尊严	-4922
尴尬	-4923
山的	-4924
火火	-4925
牛羊	-4926
牵着	-4927
骏马	-4928
▁一条	-4929
城市的	-4930
这份爱	-4931
不知不觉	-4932
▁披	-4933
介意	-4934
呢喃	-4935
无知	-4936
眨眼	-4937
▁一心	-4938
▁不让	-4939
▁午夜	-4940
▁答应	-4941
▁纵使	-4942
为自己	-4943
的伤悲	-4944
▁我独自	-4945
ha	-4946
困在	-4947
相知	-4948
▁像个	-4949
▁坚强	-4950
▁情歌	-4951
的是你	-4952
自由自在	-4953
初恋	-4954
却不	-4955
徜徉	-4956
蓝色	-4957
▁恰	-4958
▁折	-4959
▁紧	-4960
微微	-4961
投降	-4962
自豪	-4963
轰轰烈	-4964
▁抓	-4965
中有	-4966
复兴	-4967
点滴	-4968
美满	-4969
▁夜晚	-4970
和我的	-4971
的痕迹	-4972
▁手牵手	-4973
之上	-4974
死去	-4975
的花朵	-4976
那个人	-4977
▁令	-4978
▁巴	-4979
了几	-4980
会在	-4981
冰雪	-4982
布满	-4983
波澜	-4984
理会	-4985
真好	-4986
计算	-4987
没关系	-4988
留下来	-4989
的借口	-4990
在我心底	-4991
权利	-4992
▁四季	-4993
想太多	-4994
▁忍不住	-4995
▁静静的	-4996
轰轰烈烈	-4997
塌地	-4998
晴空	-4999
杨柳	-5000
追随	-5001
未来的	-5002
爱上了	-5003
▁一路上	-5004
纯洁	-5005
花的	-5006
一起来	-5007
到哪里	-5008
很快乐	-5009
肩并肩	-5010
越走越	-5011
亲密	-5012
你都	-5013
允许	-5014
冷落	-5015
▁最初	-5016
微笑着	-5017
▁保	-5018
小鸟	-5019
幽幽	-5020
悲喜	-5021
每夜	-5022
远行	-5023
▁成功	-5024
得那么	-5025
爱过你	-5026
▁天涯海角	-5027
尘封	-5028
得不	-5029
晚风	-5030
遍体	-5031
▁天长	-5032
▁黄昏	-5033
....	-5034
▁你爱我	-5035
跌跌撞撞	-5036
▁勾	-5037
▁燃	-5038
乐园	-5039
成灰	-5040
离愁	-5041
种种	-5042
黯然	-5043
▁外面	-5044
▁蓦然	-5045
▁霓虹	-5046
希望你	-5047
▁我爱的	-5048
告白	-5049
学着	-5050
未能	-5051
说起	-5052
不想再	-5053
义无反顾	-5054
的世界里	-5055
▁你在哪里	-5056
▁浓	-5057
一站	-5058
乡愁	-5059
今朝	-5060
混乱	-5061
见过	-5062
雪山	-5063
鲜艳	-5064
▁光阴	-5065
▁结果	-5066
喜欢我	-5067
▁闭上眼睛	-5068
山岗	-5069
起伏	-5070
eve	-5071
▁重复	-5072
▁鸟儿	-5073
不再是	-5074
▁醒	-5075
散发	-5076
表现	-5077
豪迈	-5078
▁她的	-5079
▁痴情	-5080
却没有	-5081
怎么了	-5082
的月光	-5083
▁这里的	-5084
你的眼睛	-5085
▁闻	-5086
▁无情	-5087
▁欢乐	-5088
▁等我	-5089
才能够	-5090
的自由	-5091
▁甘	-5092
▁福	-5093
佳人	-5094
前面	-5095
幼稚	-5096
的太	-5097
苦痛	-5098
街角	-5099
▁相约	-5100
都一样	-5101
▁r	-5102
仔细	-5103
神仙	-5104
说明	-5105
▁声声	-5106
▁我来	-5107
▁深情	-5108
▁痴痴	-5109
▁长夜	-5110
的草原	-5111
随风飘	-5112
得多	-5113
惊醒	-5114
炽热	-5115
赌注	-5116
▁受伤	-5117
▁啦啦啦啦啦啦啦啦	-5118
安稳	-5119
小雨	-5120
就别	-5121
干净	-5122
房子	-5123
承载	-5124
撑起	-5125
露出	-5126
▁做个	-5127
▁带走	-5128
▁心事	-5129
我独自	-5130
▁两颗心	-5131
▁个	-5132
▁单	-5133
▁嗯	-5134
可否	-5135
可怕	-5136
必要	-5137
忐忑	-5138
胭脂	-5139
衣服	-5140
轨迹	-5141
▁灯火	-5142
不清楚	-5143
多么的	-5144
好好珍惜	-5145
▁在我心里	-5146
▁如果可以	-5147
惦记	-5148
摘下	-5149
看穿	-5150
真是	-5151
街道	-5152
辣辣	-5153
▁伸出	-5154
▁迎接	-5155
你不要	-5156
的街头	-5157
让你走	-5158
▁有些人	-5159
在我的心	-5160
▁花开花落	-5161
不悔	-5162
心房	-5163
愚蠢	-5164
我愿	-5165
消逝	-5166
种子	-5167
飞去	-5168
▁冬天	-5169
▁向前	-5170
原谅我	-5171
离开了	-5172
▁容	-5173
前的	-5174
掌握	-5175
浮云	-5176
激荡	-5177
痛彻	-5178
▁迎着	-5179
▁除了	-5180
你对我	-5181
寻觅觅	-5182
的那天	-5183
▁你到底	-5184
伤痕累累	-5185
如同	-5186
彷佛	-5187
沦陷	-5188
▁on	-5189
一杯酒	-5190
回不到	-5191
天真的	-5192
选择了	-5193
▁温暖的	-5194
人家	-5195
光荣	-5196
嘴巴	-5197
绝不	-5198
魔法	-5199
▁一种	-5200
▁各自	-5201
▁电话	-5202
▁瞬间	-5203
的双眼	-5204
▁小时候	-5205
勇往直前	-5206
在我心上	-5207
▁超	-5208
三生	-5209
再大	-5210
真理	-5211
▁当时	-5212
▁心底	-5213
▁感恩	-5214
充满了	-5215
好兄弟	-5216
▁才明白	-5217
▁说什么	-5218
▁愈	-5219
▁阴	-5220
我我	-5221
所爱	-5222
散去	-5223
旧梦	-5224
神经	-5225
缘浅	-5226
缱绻	-5227
多少年	-5228
▁应	-5229
一圈	-5230
总要	-5231
我去	-5232
打拼	-5233
看破	-5234
绿色	-5235
蒸发	-5236
飞蛾	-5237
只是一	-5238
▁我是一个	-5239
▁敬	-5240
伤了	-5241
别的	-5242
国度	-5243
念念	-5244
海的	-5245
▁彩虹	-5246
▁我听	-5247
记忆里	-5248
放飞	-5249
来回	-5250
潮落	-5251
破浪	-5252
追忆	-5253
的牵挂	-5254
▁the	-5255
▁习惯了	-5256
▁又何必	-5257
▁天上的	-5258
▁定	-5259
▁拍	-5260
不灭	-5261
初见	-5262
甜美	-5263
睡觉	-5264
▁创造	-5265
▁就连	-5266
▁微风	-5267
不可及	-5268
全部都	-5269
的等待	-5270
而不见	-5271
▁我心中	-5272
会更	-5273
宽容	-5274
弥补	-5275
很想	-5276
放任	-5277
理智	-5278
秋水	-5279
长长	-5280
暖花开	-5281
的歌唱	-5282
▁什么都	-5283
▁我的梦	-5284
共度	-5285
再度	-5286
覆水	-5287
过身	-5288
多情的	-5289
一件	-5290
就该	-5291
苍苍	-5292
蔷薇	-5293
▁到了	-5294
▁好久	-5295
▁睁开	-5296
▁你走了	-5297
不分	-5298
人人	-5299
的白	-5300
让他	-5301
▁可你	-5302
你自己	-5303
▁如果说	-5304
直到永远	-5305
▁就算你	-5306
告诉自己	-5307
▁极	-5308
停在	-5309
记录	-5310
▁也有	-5311
▁听见	-5312
怎么办	-5313
总会有	-5314
我愿意	-5315
真心的	-5316
▁你现在	-5317
酸甜苦辣	-5318
▁外	-5319
冰冻	-5320
情长	-5321
掏空	-5322
萤火	-5323
谎话	-5324
▁热血	-5325
▁破碎	-5326
▁蓝天	-5327
也可以	-5328
好朋友	-5329
怒哀乐	-5330
的爱人	-5331
花雪月	-5332
我的心里	-5333
回响	-5334
盲目	-5335
至少	-5336
▁他说	-5337
▁想象	-5338
▁我俩	-5339
▁遗忘	-5340
你给的	-5341
▁啦啦啦啦啦	-5342
▁碧	-5343
▁读	-5344
▁赤	-5345
换了	-5346
掌心	-5347
校园	-5348
爷爷	-5349
的走	-5350
风云	-5351
▁融化	-5352
我可以	-5353
▁再也不	-5354
▁只要有你	-5355
▁忙	-5356
倒流	-5357
写的	-5358
啤酒	-5359
天高	-5360
田野	-5361
陷阱	-5362
▁仰望	-5363
▁沿途	-5364
为情	-5365
心意	-5366
把手	-5367
放逐	-5368
明日	-5369
星河	-5370
被人	-5371
风沙	-5372
飘着	-5373
▁共你	-5374
还有什么	-5375
▁叶	-5376
一百	-5377
冬夏	-5378
千秋	-5379
南方	-5380
占有	-5381
月儿	-5382
粉碎	-5383
繁花	-5384
▁只求	-5385
▁可怜	-5386
着眼泪	-5387
轻轻吹	-5388
▁广	-5389
使你	-5390
哼着	-5391
▁歌唱	-5392
就可以	-5393
蓝色的	-5394
▁你的微笑	-5395
▁我们都是	-5396
es	-5397
喧哗	-5398
无影	-5399
枕边	-5400
独特	-5401
▁用尽	-5402
不完的	-5403
从来没有	-5404
无能为力	-5405
▁张	-5406
一根	-5407
用爱	-5408
▁我问	-5409
▁春去	-5410
▁来到	-5411
我的家	-5412
一万	-5413
可退	-5414
透了	-5415
高楼	-5416
▁世事	-5417
▁对于	-5418
洁白的	-5419
骄傲的	-5420
▁你说过	-5421
▁如果爱	-5422
▁怎么能	-5423
▁唵	-5424
三月	-5425
心田	-5426
握紧	-5427
▁暖暖	-5428
▁点亮	-5429
▁爱要	-5430
谢谢你	-5431
▁只为你	-5432
▁没有了	-5433
最后一次	-5434
▁从来没有	-5435
乐章	-5436
冲破	-5437
解开	-5438
非要	-5439
不爱你	-5440
冻结	-5441
凝聚	-5442
得更	-5443
心伤	-5444
想像	-5445
来时	-5446
▁地球	-5447
▁漫漫	-5448
▁遥远	-5449
的温暖	-5450
风雨中	-5451
▁今天的	-5452
一想	-5453
在流	-5454
明显	-5455
海浪	-5456
红色	-5457
过境	-5458
▁无怨	-5459
准备好	-5460
却不能	-5461
的东西	-5462
陪伴你	-5463
▁象	-5464
不止	-5465
海阔	-5466
▁风中	-5467
吞噬	-5468
▁有种	-5469
我所有	-5470
我的思念	-5471
▁圆	-5472
仿似	-5473
吃饭	-5474
女儿	-5475
感叹	-5476
暂停	-5477
毒药	-5478
生存	-5479
▁幻	-5480
亲亲	-5481
伙伴	-5482
对爱	-5483
星球	-5484
远远	-5485
迷途	-5486
飞到	-5487
▁冷冷	-5488
▁执着	-5489
▁耳边	-5490
的情感	-5491
▁我心里	-5492
永远在一起	-5493
起的	-5494
▁犹如	-5495
▁醉了	-5496
不相信	-5497
回忆的	-5498
都已经	-5499
▁骑	-5500
宝宝	-5501
念头	-5502
无期	-5503
雨滴	-5504
▁往日	-5505
▁都会	-5506
了所有	-5507
简单的	-5508
▁愁	-5509
起航	-5510
▁夏天	-5511
▁情绪	-5512
▁毕竟	-5513
今天的	-5514
的情话	-5515
▁却没有	-5516
▁轻轻地	-5517
阿弥陀佛	-5518
▁脱	-5519
已久	-5520
旗帜	-5521
▁心在	-5522
爱自己	-5523
▁沙	-5524
▁财	-5525
你有	-5526
别说	-5527
寒风	-5528
将会	-5529
格桑	-5530
泛滥	-5531
绿水	-5532
脉搏	-5533
▁漫长	-5534
的人群	-5535
▁梦中的	-5536
▁看不到	-5537
和我一样	-5538
▁幸	-5539
▁累	-5540
化为	-5541
心儿	-5542
是种	-5543
最高	-5544
泥土	-5545
的很	-5546
▁心儿	-5547
再相见	-5548
记得你	-5549
▁可爱的	-5550
▁滴	-5551
着头	-5552
自拔	-5553
▁你从	-5554
▁走过了	-5555
亲手	-5556
烽火	-5557
的男人	-5558
▁乌	-5559
倒影	-5560
公平	-5561
取代	-5562
太傻	-5563
无心	-5564
见到	-5565
▁月儿	-5566
天上的	-5567
爱过我	-5568
▁也不会	-5569
与共	-5570
怒放	-5571
无辜	-5572
着爱	-5573
鳞伤	-5574
走到了	-5575
▁谁知道	-5576
人类	-5577
朝阳	-5578
▁最美	-5579
▁汗水	-5580
▁一样的	-5581
▁在这里	-5582
做人	-5583
给予	-5584
▁无聊	-5585
▁脚步	-5586
分每秒	-5587
我还是	-5588
是谁的	-5589
永远都	-5590
的心里	-5591
▁目	-5592
不负	-5593
侧脸	-5594
帮我	-5595
欢迎	-5596
菩提	-5597
追赶	-5598
bye	-5599
ell	-5600
▁传说	-5601
▁分享	-5602
▁送你	-5603
在夜里	-5604
新时代	-5605
的你我	-5606
的感动	-5607
甜言蜜语	-5608
环绕	-5609
老师	-5610
▁每一	-5611
▁还是你	-5612
▁点点滴滴	-5613
▁风风雨雨	-5614
人潮	-5615
听得	-5616
心全	-5617
执念	-5618
步步	-5619
装满	-5620
过年	-5621
▁那一	-5622
的天气	-5623
视而不见	-5624
体验	-5625
已被	-5626
有梦	-5627
睡着	-5628
给谁	-5629
记号	-5630
一秒钟	-5631
感情的	-5632
痛苦的	-5633
▁在梦里	-5634
▁每当我	-5635
▁贴	-5636
北方	-5637
热泪	-5638
走近	-5639
▁遥望	-5640
不说话	-5641
我不再	-5642
那么深	-5643
一点一点	-5644
▁我亲爱的	-5645
冥冥	-5646
几许	-5647
开启	-5648
痛过	-5649
笑笑	-5650
茉莉	-5651
▁从没	-5652
▁何处	-5653
▁落花	-5654
▁故	-5655
歌曲	-5656
热恋	-5657
肆意	-5658
飘摇	-5659
鼓掌	-5660
▁漆黑	-5661
做朋友	-5662
睡不着	-5663
▁有太多	-5664
▁还是我	-5665
▁暮	-5666
▁气	-5667
▁银	-5668
哪儿	-5669
给他	-5670
▁向着	-5671
▁坚定	-5672
▁天边	-5673
▁漫天	-5674
不自禁	-5675
梦想的	-5676
纯真的	-5677
这一天	-5678
▁有谁能	-5679
▁没关系	-5680
▁你给我的	-5681
冷却	-5682
满山	-5683
眼底	-5684
等等	-5685
袅袅	-5686
▁一首	-5687
▁跟你	-5688
天地间	-5689
▁我听见	-5690
在飞	-5691
平常	-5692
成空	-5693
旁人	-5694
未了	-5695
深爱	-5696
▁有缘	-5697
▁等着	-5698
苦再累	-5699
静静地	-5700
▁说不出	-5701
▁让我们一起	-5702
▁唉	-5703
▁祢	-5704
写满	-5705
南北	-5706
印记	-5707
少女	-5708
扑火	-5709
指间	-5710
替你	-5711
祝你	-5712
降落	-5713
▁吉祥	-5714
▁甜甜	-5715
慢慢地	-5716
▁我都会	-5717
我是你的	-5718
▁我的爱情	-5719
▁倘	-5720
▁蒙	-5721
一梦	-5722
十五	-5723
如风	-5724
拉拉	-5725
肩上	-5726
预料	-5727
▁坐在	-5728
▁从今以后	-5729
▁我不想再	-5730
▁抛	-5731
▁燕	-5732
全身	-5733
共我	-5734
即使	-5735
右手	-5736
吟唱	-5737
征服	-5738
怕你	-5739
▁日月	-5740
还不够	-5741
▁虽然我	-5742
▁拜	-5743
凋落	-5744
灯下	-5745
谁又	-5746
▁伴我	-5747
▁后悔	-5748
创伤	-5749
可贵	-5750
在等	-5751
早晨	-5752
背负	-5753
衣袖	-5754
进退	-5755
长城	-5756
长江	-5757
▁每日	-5758
▁相聚	-5759
▁不要让我	-5760
▁怨	-5761
▁惟	-5762
丢掉	-5763
喝酒	-5764
山上	-5765
情侣	-5766
▁伤痛	-5767
▁柔情	-5768
▁远处	-5769
什么是	-5770
学不会	-5771
的伤痛	-5772
最美丽的	-5773
▁柳	-5774
▁眉	-5775
嘛呢	-5776
战友	-5777
▁举杯	-5778
多少次	-5779
▁就算我	-5780
不是我的	-5781
的灯	-5782
▁一人	-5783
的游戏	-5784
还是要	-5785
▁这辈子	-5786
▁我会永远	-5787
好友	-5788
梅花	-5789
疯了	-5790
舞动	-5791
▁一世	-5792
▁漂泊	-5793
▁难过	-5794
是一片	-5795
▁我明白	-5796
▁过去的	-5797
▁是你让我	-5798
之下	-5799
回报	-5800
思考	-5801
捆绑	-5802
荣光	-5803
▁当天	-5804
▁用力	-5805
的人儿	-5806
▁让我的	-5807
一如	-5808
又再	-5809
回想	-5810
太空	-5811
舞步	-5812
▁当爱	-5813
唱着歌	-5814
看得见	-5815
誓山盟	-5816
靠近你	-5817
▁雾	-5818
在外	-5819
慈祥	-5820
渐行	-5821
炫耀	-5822
香味	-5823
▁闪烁	-5824
▁wan	-5825
为她	-5826
只得	-5827
娇艳	-5828
春来	-5829
长安	-5830
驰骋	-5831
▁今日	-5832
▁安静	-5833
▁带上	-5834
▁把心	-5835
▁遇到	-5836
甜蜜蜜	-5837
的泪滴	-5838
花儿开	-5839
▁一个人的	-5840
▁埋	-5841
放声	-5842
烙印	-5843
蜿蜒	-5844
走遍	-5845
▁无力	-5846
▁管他	-5847
▁有些事	-5848
在你的身边	-5849
交织	-5850
好人	-5851
姻缘	-5852
安心	-5853
心已	-5854
敲打	-5855
纷扰	-5856
▁不顾	-5857
▁好多	-5858
的容颜	-5859
▁在每个	-5860
你的声音	-5861
你的消息	-5862
闭上眼睛	-5863
叮咛	-5864
离分	-5865
那边	-5866
▁一朵	-5867
▁难免	-5868
很简单	-5869
的太多	-5870
的心事	-5871
▁多少个	-5872
一家	-5873
地点	-5874
擦干	-5875
晶莹	-5876
沮丧	-5877
观众	-5878
送我	-5879
飘来	-5880
魂牵梦	-5881
▁想起你	-5882
▁放不下	-5883
ly	-5884
▁石	-5885
大爱	-5886
忘怀	-5887
狂欢	-5888
着眼	-5889
硝烟	-5890
许愿	-5891
▁一张	-5892
▁结束	-5893
不懂得	-5894
又一次	-5895
是这样	-5896
错过了	-5897
陪伴我	-5898
▁失去了	-5899
▁跑	-5900
不听	-5901
云端	-5902
尘世	-5903
归去	-5904
心思	-5905
拉扯	-5906
深秋	-5907
结婚	-5908
讨好	-5909
钟情	-5910
▁La	-5911
▁如同	-5912
▁心上	-5913
最重要	-5914
的意义	-5915
▁聚	-5916
▁锁	-5917
一扇	-5918
数着	-5919
淡忘	-5920
繁荣	-5921
要你	-5922
退出	-5923
▁一身	-5924
▁缠绵	-5925
▁都在	-5926
开心的	-5927
止不住	-5928
▁总会有	-5929
▁要怎么	-5930
爸爸妈妈	-5931
三年	-5932
向谁	-5933
如愿	-5934
快点	-5935
牡丹	-5936
短短	-5937
答答	-5938
道别	-5939
阻碍	-5940
▁滚滚	-5941
刻骨铭心	-5942
遍体鳞伤	-5943
▁鼓	-5944
不成	-5945
垃圾	-5946
得像	-5947
惹人	-5948
扮演	-5949
着的	-5950
算是	-5951
行动	-5952
试过	-5953
追问	-5954
▁使我	-5955
心爱的	-5956
▁是因为	-5957
▁爱着你	-5958
▁唔	-5959
▁昔	-5960
困扰	-5961
崇拜	-5962
彩霞	-5963
彻夜	-5964
忠诚	-5965
执迷	-5966
爬上	-5967
还未	-5968
▁留在	-5969
不见了	-5970
还是会	-5971
默默地	-5972
▁我承认	-5973
▁闪	-5974
中间	-5975
叮当	-5976
对象	-5977
感恩	-5978
重现	-5979
为我们	-5980
▁你不会	-5981
▁我在这里	-5982
▁琴	-5983
▁绕	-5984
不相	-5985
心转	-5986
怪你	-5987
炙热	-5988
窗口	-5989
策马	-5990
跨过	-5991
▁时刻	-5992
▁你为何	-5993
▁只为了	-5994
▁戏	-5995
声响	-5996
挽手	-5997
溜走	-5998
福气	-5999
▁不问	-6000
▁当年	-6001
▁脑海	-6002
去爱你	-6003
▁你曾经	-6004
▁你离开	-6005
▁温柔的	-6006
▁等着你	-6007
大步	-6008
往往	-6009
找我	-6010
摇摇	-6011
梦乡	-6012
这般	-6013
面的	-6014
▁不同	-6015
▁辗转	-6016
受折磨	-6017
为你守候	-6018
你的身影	-6019
▁徒	-6020
余地	-6021
坦然	-6022
归途	-6023
满意	-6024
臂弯	-6025
▁一夜	-6026
▁刹那	-6027
过我的	-6028
还是你	-6029
▁因为爱	-6030
▁我们曾	-6031
我们的爱情	-6032
oh	-6033
举起	-6034
条街	-6035
褪色	-6036
▁两个	-6037
▁天使	-6038
▁想到	-6039
▁秋天	-6040
▁红红	-6041
▁缘份	-6042
不放弃	-6043
就没有	-6044
的生命	-6045
着自己	-6046
我对你的	-6047
海角天涯	-6048
风风雨雨	-6049
▁你为什么	-6050
▁1	-6051
▁拥	-6052
受了	-6053
啰嗦	-6054
握住	-6055
撕碎	-6056
有一	-6057
▁家乡	-6058
▁怪我	-6059
▁拒绝	-6060
是一年	-6061
两人	-6062
分担	-6063
反应	-6064
消瘦	-6065
看的	-6066
▁我和	-6067
▁黎明	-6068
的情人	-6069
▁最好的	-6070
▁看不清	-6071
知不知道	-6072
古老	-6073
帮助	-6074
手里	-6075
挥洒	-6076
熊熊	-6077
犹如	-6078
面孔	-6079
了什么	-6080
我想你	-6081
童年的	-6082
▁我努力	-6083
▁天长地久	-6084
▁戒	-6085
句点	-6086
叫你	-6087
山川	-6088
▁我等	-6089
守护你	-6090
悄悄地	-6091
▁粉	-6092
有心	-6093
到如今	-6094
又怎样	-6095
脸上的	-6096
说分手	-6097
▁原来你	-6098
▁该怎么	-6099
就是这样	-6100
▁接	-6101
一一	-6102
不需	-6103
与非	-6104
圣诞	-6105
慷慨	-6106
支离	-6107
潺潺	-6108
落的	-6109
重演	-6110
▁用我	-6111
▁让世界	-6112
春夏秋冬	-6113
▁抹	-6114
昙花	-6115
有所	-6116
烦忧	-6117
血液	-6118
遥遥	-6119
怎样的	-6120
是非非	-6121
▁忘不掉	-6122
一个人的	-6123
▁口	-6124
▁通	-6125
八方	-6126
凄美	-6127
去做	-6128
浪迹	-6129
这刻	-6130
▁亲吻	-6131
▁来生	-6132
▁还好	-6133
我一人	-6134
我的泪	-6135
▁武	-6136
即将	-6137
可笑	-6138
大街	-6139
捉摸	-6140
漂浮	-6141
空洞	-6142
▁教我	-6143
▁最近	-6144
▁疯狂	-6145
并没有	-6146
把你放	-6147
▁求求你	-6148
▁漫漫长	-6149
▁现在的我	-6150
▁摆	-6151
▁甩	-6152
情难	-6153
斑斓	-6154
话题	-6155
▁任由	-6156
▁十年	-6157
▁换来	-6158
▁漫步	-6159
▁白天	-6160
▁走遍	-6161
就足够	-6162
最初的	-6163
相信我	-6164
难忘记	-6165
▁紫	-6166
十六	-6167
十字	-6168
对手	-6169
成河	-6170
沉迷	-6171
置身	-6172
黑色	-6173
▁用爱	-6174
▁笑看	-6175
▁走吧	-6176
伟大的	-6177
▁也没有	-6178
一步一步	-6179
到你身边	-6180
▁玛	-6181
停歇	-6182
苦难	-6183
▁回想	-6184
▁无需	-6185
▁晚安	-6186
▁爱就	-6187
小时候	-6188
我的情	-6189
▁离开你	-6190
你的模样	-6191
▁寄	-6192
▁忆	-6193
▁懒	-6194
▁蝶	-6195
动了	-6196
包袱	-6197
强烈	-6198
歌颂	-6199
灰色	-6200
爱在	-6201
穿上	-6202
若离	-6203
落地	-6204
讯息	-6205
身份	-6206
▁快快	-6207
分不清	-6208
唱情歌	-6209
需要你	-6210
风破浪	-6211
▁跟着我	-6212
▁喊	-6213
发财	-6214
大道	-6215
探索	-6216
星期	-6217
行走	-6218
裂肺	-6219
飞行	-6220
▁似乎	-6221
▁轮回	-6222
心全意	-6223
▁于是我	-6224
▁我只有	-6225
▁祝福你	-6226
亲切	-6227
南飞	-6228
生生	-6229
能力	-6230
陪着	-6231
隔着	-6232
▁My	-6233
不一定	-6234
的情节	-6235
不知所措	-6236
变换	-6237
归家	-6238
是在	-6239
河山	-6240
艰苦	-6241
花花	-6242
衷肠	-6243
▁夜里	-6244
▁失恋	-6245
▁平安	-6246
无法再	-6247
眼中的	-6248
▁在我心中	-6249
动心	-6250
▁反复	-6251
▁淡淡	-6252
▁这场	-6253
我心底	-6254
的双手	-6255
的海洋	-6256
▁脚	-6257
不言	-6258
云散	-6259
仍在	-6260
开满	-6261
得意	-6262
念你	-6263
打破	-6264
游走	-6265
▁何不	-6266
▁相逢	-6267
是因为	-6268
过境迁	-6269
▁余	-6270
代代	-6271
才知	-6272
留着	-6273
秋来	-6274
▁no	-6275
▁忧伤	-6276
le	-6277
▁遇	-6278
却在	-6279
嘴边	-6280
太平	-6281
树叶	-6282
满怀	-6283
火热	-6284
虚无	-6285
起我	-6286
▁ha	-6287
▁点点	-6288
▁熟悉	-6289
的诺言	-6290
▁慢慢地	-6291
你的一切	-6292
▁和你一起	-6293
▁差	-6294
▁推	-6295
▁踩	-6296
同舟	-6297
哩哩	-6298
奔放	-6299
梧桐	-6300
白色	-6301
青青	-6302
▁天亮	-6303
▁寻觅	-6304
▁童话	-6305
▁路上	-6306
的女孩	-6307
陌生的	-6308
▁如果能	-6309
▁有了你	-6310
下这	-6311
向上	-6312
气味	-6313
篝火	-6314
▁冰冷	-6315
▁失落	-6316
▁承受	-6317
▁留住	-6318
每一秒	-6319
▁当我们	-6320
千山万水	-6321
▁你的眼神	-6322
专属	-6323
切切	-6324
哈达	-6325
哪怕	-6326
救药	-6327
的信	-6328
盛夏	-6329
纯粹	-6330
荒野	-6331
去远方	-6332
在天空	-6333
我不懂	-6334
老地方	-6335
▁遮	-6336
放晴	-6337
热吻	-6338
▁一份	-6339
一个我	-6340
不能忘	-6341
▁我给你	-6342
不顾一切	-6343
▁闲	-6344
买醉	-6345
洋溢	-6346
▁我再	-6347
▁时常	-6348
▁江山	-6349
不回来	-6350
了太多	-6351
是为了	-6352
的歌曲	-6353
茫茫人海	-6354
▁染	-6355
心在	-6356
我爱	-6357
的门	-6358
隐隐	-6359
▁无悔	-6360
到天亮	-6361
这一次	-6362
▁一瞬间	-6363
▁他们说	-6364
▁是我们	-6365
▁千言万语	-6366
▁我的眼泪	-6367
▁立	-6368
公园	-6369
啪啪	-6370
扬帆	-6371
樱花	-6372
洁白	-6373
躲藏	-6374
▁守着	-6375
▁懂得	-6376
▁是非	-6377
▁月色	-6378
▁都有	-6379
▁不要说	-6380
▁yeah	-6381
一页	-6382
性格	-6383
无话	-6384
望你	-6385
深藏	-6386
▁却是	-6387
▁她说	-6388
到天明	-6389
去哪里	-6390
岁月里	-6391
得太多	-6392
▁一起来	-6393
▁却不能	-6394
▁无怨无悔	-6395
▁失	-6396
▁碎	-6397
嗒嗒	-6398
坚信	-6399
恋情	-6400
血脉	-6401
这次	-6402
▁我总	-6403
闭上眼	-6404
▁爱一个人	-6405
▁生生世世	-6406
▁撒	-6407
一念	-6408
太美	-6409
羞涩	-6410
难题	-6411
▁伴着	-6412
▁整个	-6413
听你说	-6414
来得及	-6415
白色的	-6416
的远方	-6417
▁最后的	-6418
十二	-6419
头上	-6420
跳跳	-6421
闯荡	-6422
随意	-6423
▁成为	-6424
▁莫非	-6425
▁高高	-6426
人世间	-6427
的情缘	-6428
走就走	-6429
剧本	-6430
哀伤	-6431
成真	-6432
期许	-6433
独行	-6434
的新	-6435
被谁	-6436
▁远离	-6437
变得更	-6438
心转意	-6439
我无法	-6440
▁不让你	-6441
▁我希望	-6442
在你心里	-6443
▁什么都不	-6444
▁k	-6445
入了	-6446
发出	-6447
受罪	-6448
安详	-6449
抉择	-6450
秋千	-6451
红旗	-6452
配合	-6453
▁唯一	-6454
▁风里	-6455
记忆中	-6456
▁用我的	-6457
▁这首歌	-6458
▁那一年	-6459
遇见了你	-6460
▁良	-6461
东流	-6462
张望	-6463
旁边	-6464
沥沥	-6465
玩耍	-6466
考虑	-6467
有很多	-6468
的情怀	-6469
▁为什么你	-6470
▁修	-6471
▁牧	-6472
▁认	-6473
下雪	-6474
再等	-6475
向着	-6476
钢琴	-6477
地平线	-6478
怎么能	-6479
深夜里	-6480
认识你	-6481
那样的	-6482
▁如果我们	-6483
▁心甘情愿	-6484
似乎	-6485
点缀	-6486
过错	-6487
▁一阵	-6488
▁别怕	-6489
▁琴声	-6490
了不起	-6491
嫁给我	-6492
怎么会	-6493
走天涯	-6494
▁众	-6495
不复	-6496
不放	-6497
不眠	-6498
无息	-6499
昨夜	-6500
雨的	-6501
▁一只	-6502
▁心已	-6503
家灯火	-6504
▁你为我	-6505
oodbye	-6506
ee	-6507
▁碰	-6508
牢记	-6509
▁追寻	-6510
带走了	-6511
我不能	-6512
的星星	-6513
▁午	-6514
光彩	-6515
再续	-6516
唱的	-6517
杜鹃	-6518
疑惑	-6519
路的	-6520
▁江南	-6521
故事里	-6522
永不变	-6523
眼泪流	-6524
等不到	-6525
走过的路	-6526
▁自由自在	-6527
▁R	-6528
▁湖	-6529
着急	-6530
红红	-6531
身心	-6532
▁滴滴	-6533
▁真正	-6534
模糊了	-6535
▁别问我	-6536
万事	-6537
江河	-6538
清香	-6539
▁傻傻	-6540
▁加油	-6541
▁不管你	-6542
▁伊	-6543
一往	-6544
安宁	-6545
波浪	-6546
▁不需	-6547
▁求你	-6548
看清楚	-6549
离不弃	-6550
红尘中	-6551
▁你真的	-6552
▁抽	-6553
争取	-6554
停泊	-6555
千回	-6556
吹过	-6557
此时	-6558
糟糕	-6559
若是	-6560
连着	-6561
只有我	-6562
怎么做	-6563
无人的	-6564
没有错	-6565
▁唱一首	-6566
▁我不知	-6567
▁一步一步	-6568
▁多年以后	-6569
也想	-6570
今日	-6571
何苦	-6572
天明	-6573
山高	-6574
打湿	-6575
的缘	-6576
萧瑟	-6577
雨后	-6578
预言	-6579
另一半	-6580
心裂肺	-6581
放开手	-6582
风和雨	-6583
小心翼翼	-6584
任我	-6585
嘻嘻	-6586
多彩	-6587
戴上	-6588
无虑	-6589
死了	-6590
着谁	-6591
破晓	-6592
负累	-6593
重生	-6594
▁奔向	-6595
▁疲惫	-6596
▁躲在	-6597
▁那样	-6598
的旅途	-6599
都是我	-6600
▁布	-6601
奶奶	-6602
杯中	-6603
死亡	-6604
火花	-6605
白昼	-6606
跟他	-6607
▁不去	-6608
▁接受	-6609
▁有多	-6610
▁莫名	-6611
一滴泪	-6612
心的人	-6613
▁陪着我	-6614
▁想你的时候	-6615
▁傻	-6616
▁雷	-6617
不行	-6618
几度	-6619
去向	-6620
吵闹	-6621
太少	-6622
头来	-6623
▁亲亲	-6624
▁任何	-6625
▁让那	-6626
▁还会	-6627
▁青青	-6628
我对你	-6629
有情人	-6630
相信你	-6631
你的微笑	-6632
心甘情愿	-6633
▁爱到最后	-6634
女神	-6635
愤怒	-6636
收起	-6637
的下	-6638
皎洁	-6639
矛盾	-6640
说爱	-6641
转转	-6642
风起	-6643
▁要你	-6644
无处可	-6645
的选择	-6646
这辈子	-6647
▁没有谁	-6648
▁说好了	-6649
都是我的	-6650
▁告诉自己	-6651
▁你是我心中	-6652
▁挺	-6653
咆哮	-6654
昏暗	-6655
让她	-6656
都被	-6657
▁那份	-6658
在我们	-6659
▁为你我	-6660
一个人走	-6661
一天一天	-6662
是最好的	-6663
死心塌地	-6664
▁仰	-6665
▁刺	-6666
▁横	-6667
▁王	-6668
不羁	-6669
各种	-6670
开出	-6671
播放	-6672
流行	-6673
海岸	-6674
耗尽	-6675
我也不	-6676
我身旁	-6677
▁遇见你	-6678
覆水难收	-6679
▁镜	-6680
与对	-6681
善变	-6682
妹子	-6683
旧的	-6684
汉子	-6685
看过	-6686
铺满	-6687
▁人群	-6688
▁盛开	-6689
▁竟然	-6690
▁细雨	-6691
座城市	-6692
是如此	-6693
每天都	-6694
▁红红的	-6695
▁我该怎么	-6696
▁牵着你的手	-6697
▁i	-6698
上面	-6699
乱的	-6700
双眸	-6701
壮志	-6702
患难	-6703
景象	-6704
最大	-6705
灵犀	-6706
笼罩	-6707
▁东方	-6708
▁哭泣	-6709
▁沉醉	-6710
不会变	-6711
不值得	-6712
痛彻心扉	-6713
▁尚	-6714
▁船	-6715
三十	-6716
妒忌	-6717
桥上	-6718
洒落	-6719
进我	-6720
▁唤醒	-6721
▁回望	-6722
▁天生	-6723
▁实在	-6724
梦里的	-6725
▁我情愿	-6726
▁何时才能	-6727
▁你是不是	-6728
再爱	-6729
却要	-6730
哽咽	-6731
奢侈	-6732
抱拥	-6733
收拾	-6734
是人	-6735
游子	-6736
男子	-6737
青涩	-6738
▁你能	-6739
▁快来	-6740
▁找个	-6741
渐行渐远	-6742
▁电	-6743
▁笔	-6744
▁零	-6745
嘴唇	-6746
幻灭	-6747
狂奔	-6748
狂野	-6749
终人	-6750
and	-6751
▁我一	-6752
▁拼命	-6753
你的眼	-6754
▁想和你	-6755
在你左右	-6756
▁乡	-6757
▁桃	-6758
唏嘘	-6759
如刀	-6760
婆娑	-6761
欢畅	-6762
的飞	-6763
▁像我	-6764
▁此时	-6765
▁甚至	-6766
不重要	-6767
回头望	-6768
有一种	-6769
跟着我	-6770
▁一定要	-6771
▁分不清	-6772
▁我该如何	-6773
▁迟	-6774
退后	-6775
退路	-6776
顾虑	-6777
▁淋湿	-6778
▁百年	-6779
▁除非	-6780
不了解	-6781
交给我	-6782
到现在	-6783
lala	-6784
▁我的泪	-6785
在你怀里	-6786
▁斩	-6787
▁牛	-6788
年轮	-6789
春色	-6790
欢呼	-6791
连心	-6792
▁哪个	-6793
▁将我	-6794
▁走向	-6795
不由己	-6796
有多长	-6797
黑暗中	-6798
▁我不敢	-6799
▁我现在	-6800
海誓山盟	-6801
▁我的思念	-6802
▁使	-6803
不哭	-6804
停了	-6805
又要	-6806
蒙蒙	-6807
▁山水	-6808
的语言	-6809
▁迷人的	-6810
一无所有	-6811
▁河	-6812
云淡	-6813
山坡	-6814
思议	-6815
情义	-6816
拼凑	-6817
溪水	-6818
激动	-6819
直觉	-6820
舍弃	-6821
赤裸	-6822
躯壳	-6823
▁成全	-6824
▁放心	-6825
的少年	-6826
的浪漫	-6827
▁变成了	-6828
▁丝	-6829
▁祈	-6830
保重	-6831
先生	-6832
同心	-6833
姓名	-6834
我再	-6835
汇成	-6836
犯了	-6837
界限	-6838
的说	-6839
直接	-6840
花又	-6841
遗失	-6842
风尘	-6843
▁与我	-6844
▁人民	-6845
带你去	-6846
无所求	-6847
都知道	-6848
▁却无法	-6849
▁回不去	-6850
乾坤	-6851
养育	-6852
内疚	-6853
听过	-6854
宽阔	-6855
有钱	-6856
落了	-6857
躲避	-6858
飞的	-6859
▁踏上	-6860
▁什么是	-6861
爱过的人	-6862
▁再苦再累	-6863
▁缠	-6864
满是	-6865
眉间	-6866
▁wo	-6867
▁你没	-6868
▁相依	-6869
你的梦	-6870
做我的	-6871
全是你	-6872
的是我	-6873
记忆的	-6874
▁一直到	-6875
▁我应该	-6876
▁决	-6877
▁命	-6878
▁墙	-6879
▁枯	-6880
了手	-6881
今宵	-6882
做错	-6883
关注	-6884
屋顶	-6885
打败	-6886
痛哭	-6887
▁历经	-6888
▁擦干	-6889
▁温馨	-6890
在哭泣	-6891
够不够	-6892
把爱情	-6893
▁只是你	-6894
▁我不懂	-6895
▁我多么	-6896
▁名	-6897
▁所	-6898
带上	-6899
恍惚	-6900
恨我	-6901
散步	-6902
每刻	-6903
路边	-6904
▁前路	-6905
▁千山	-6906
▁父母	-6907
上心头	-6908
的故乡	-6909
▁那么多	-6910
▁买	-6911
你想	-6912
后面	-6913
山顶	-6914
才懂	-6915
时节	-6916
疗伤	-6917
▁苦涩	-6918
▁飞到	-6919
不断的	-6920
也无法	-6921
同一个	-6922
忘了吧	-6923
在心里面	-6924
▁周	-6925
▁现	-6926
▁苍	-6927
与君	-6928
体谅	-6929
再错	-6930
写着	-6931
同学	-6932
就越	-6933
无止	-6934
芙蓉	-6935
诗句	-6936
酒醉	-6937
▁满天	-6938
▁这是我的	-6939
一笔	-6940
地图	-6941
夜幕	-6942
▁永恒	-6943
下辈子	-6944
也不回	-6945
你身边	-6946
在天边	-6947
苦苦的	-6948
▁你还在	-6949
▁就在这	-6950
为你付出	-6951
离我而去	-6952
▁不要问我	-6953
ad	-6954
▁惹	-6955
▁约	-6956
▁采	-6957
一碗	-6958
他人	-6959
几天	-6960
圣洁	-6961
怜悯	-6962
放过	-6963
流言	-6964
爱心	-6965
走完	-6966
▁今年	-6967
▁写下	-6968
▁只会	-6969
▁家家	-6970
去寻找	-6971
古老的	-6972
跟着你	-6973
和我一起	-6974
▁其	-6975
▁迈	-6976
前途	-6977
加速	-6978
有泪	-6979
烛火	-6980
给她	-6981
阿妈	-6982
iss	-6983
▁蓝蓝	-6984
我的歌	-6985
流眼泪	-6986
▁就好像	-6987
▁无论你	-6988
无路可退	-6989
消失不见	-6990
▁进	-6991
们的	-6992
唠叨	-6993
嘀嗒	-6994
地狱	-6995
经典	-6996
落空	-6997
▁来自	-6998
不同的	-6999
也不是	-7000
在天涯	-7001
快乐乐	-7002
找到了	-7003
有过的	-7004
▁虽然你	-7005
▁静静地	-7006
▁没有你我	-7007
▁看着你的	-7008
▁我们的故事	-7009
un	-7010
▁指	-7011
▁纸	-7012
不远	-7013
入我	-7014
创新	-7015
去吧	-7016
命的	-7017
喵喵	-7018
嘹亮	-7019
小手	-7020
帮你	-7021
情仇	-7022
方法	-7023
无从	-7024
白马	-7025
着光	-7026
诚恳	-7027
▁健康	-7028
▁女孩	-7029
听不到	-7030
的忧伤	-7031
▁春夏秋冬	-7032
▁现在的你	-7033
▁我对你的爱	-7034
一束	-7035
五彩	-7036
会变	-7037
住着	-7038
奔腾	-7039
对面	-7040
打算	-7041
▁月下	-7042
▁狂风	-7043
了你我	-7044
▁错过了	-7045
▁竹	-7046
甘甜	-7047
立在	-7048
长空	-7049
骗我	-7050
▁来世	-7051
孤单单	-7052
▁那一刻	-7053
回心转意	-7054
我们曾经	-7055
▁你的身影	-7056
▁最后一次	-7057
▁边	-7058
与谁	-7059
举杯	-7060
单车	-7061
嬉戏	-7062
注视	-7063
疯癫	-7064
讯号	-7065
风采	-7066
▁你让	-7067
▁守候	-7068
▁沿着	-7069
▁要是	-7070
一个吻	-7071
分秒秒	-7072
被遗忘	-7073
说爱你	-7074
▁有一点	-7075
▁坏	-7076
▁触	-7077
刚刚	-7078
去找	-7079
好梦	-7080
很长	-7081
水流	-7082
读懂	-7083
逃跑	-7084
遮掩	-7085
▁一边	-7086
▁你爱	-7087
▁可知	-7088
▁潇洒	-7089
世界上	-7090
两颗心	-7091
有多久	-7092
▁告诉你	-7093
▁那是你	-7094
▁一天一天	-7095
▁海誓山盟	-7096
▁胡	-7097
水的	-7098
这天	-7099
马上	-7100
▁旋转	-7101
▁朦胧	-7102
多少个	-7103
走不出	-7104
▁你问我	-7105
▁风雨中	-7106
▁J	-7107
十里	-7108
印象	-7109
国家	-7110
夏季	-7111
定义	-7112
弹奏	-7113
拉手	-7114
救赎	-7115
的沙	-7116
讽刺	-7117
▁今宵	-7118
▁同样	-7119
▁此情	-7120
▁翻开	-7121
▁隐藏	-7122
断了线	-7123
▁就像是	-7124
▁我决定	-7125
▁说好的	-7126
▁整个世界	-7127
▁彩	-7128
▁撑	-7129
▁茶	-7130
不平	-7131
与错	-7132
出你	-7133
猜测	-7134
留言	-7135
白首	-7136
胸前	-7137
记载	-7138
驱散	-7139
▁依稀	-7140
▁奔跑	-7141
▁抱紧	-7142
▁绵绵	-7143
也会有	-7144
坚强的	-7145
已不在	-7146
▁你的脸	-7147
▁我害怕	-7148
▁每天都	-7149
▁来吧来吧	-7150
▁P	-7151
事都	-7152
如麻	-7153
梳妆	-7154
火车	-7155
百转	-7156
花蕊	-7157
转变	-7158
▁带你	-7159
▁是那	-7160
▁有梦	-7161
▁还想	-7162
做不到	-7163
渐渐的	-7164
草原上	-7165
▁等不到	-7166
你的美丽	-7167
滴答滴答	-7168
把那	-7169
抱抱	-7170
旧日	-7171
淡了	-7172
的吻	-7173
的城	-7174
的河	-7175
▁今朝	-7176
▁红颜	-7177
再没有	-7178
▁我一定	-7179
我的爱情	-7180
▁这么多年	-7181
太晚	-7182
太累	-7183
日后	-7184
来又	-7185
梦回	-7186
火烧	-7187
迢迢	-7188
追梦	-7189
▁不爱	-7190
▁夜空	-7191
不想你	-7192
手中的	-7193
的情意	-7194
▁日日夜夜	-7195
我们在一起	-7196
▁宁	-7197
二十	-7198
扰扰	-7199
朵花	-7200
湖畔	-7201
草地	-7202
遨游	-7203
鲜血	-7204
▁手中	-7205
▁星空	-7206
▁让这	-7207
真实的	-7208
醉人的	-7209
▁蓦然回首	-7210
▁军	-7211
不少	-7212
发誓	-7213
哎呀	-7214
很大	-7215
无需	-7216
终结	-7217
美女	-7218
酸楚	-7219
▁一些	-7220
▁不忘	-7221
▁却还	-7222
▁我为	-7223
挡不住	-7224
最真的	-7225
有个人	-7226
阳光下	-7227
▁我对你的	-7228
伤过	-7229
去飞	-7230
叭咪	-7231
旷野	-7232
步履	-7233
沉溺	-7234
溜溜	-7235
▁三生	-7236
去珍惜	-7237
在脸上	-7238
的节奏	-7239
▁是我不	-7240
我的心情	-7241
没有结果	-7242
▁字	-7243
▁观	-7244
▁默	-7245
不移	-7246
关上	-7247
征途	-7248
春雨	-7249
温情	-7250
瞳孔	-7251
终将	-7252
耳畔	-7253
起你	-7254
▁只盼	-7255
▁活着	-7256
▁真实	-7257
了以后	-7258
交给你	-7259
像从前	-7260
有了你	-7261
看一眼	-7262
首情歌	-7263
的那一刻	-7264
▁你是我今生	-7265
▁楼	-7266
合合	-7267
吻你	-7268
子孙	-7269
插上	-7270
▁咖啡	-7271
▁距离	-7272
▁逝去	-7273
到尽头	-7274
把我们	-7275
的咖啡	-7276
起落落	-7277
▁再多的	-7278
▁勇敢的	-7279
▁原来我	-7280
▁哪怕是	-7281
▁这不是	-7282
▁投	-7283
下次	-7284
久违	-7285
今年	-7286
做我	-7287
几遍	-7288
好累	-7289
山下	-7290
盈盈	-7291
突破	-7292
让心	-7293
▁倘若	-7294
▁唯独	-7295
▁实现	-7296
▁无处	-7297
我知道	-7298
时刻刻	-7299
某一天	-7300
这么多	-7301
▁我的家	-7302
▁把所有	-7303
▁让时间	-7304
▁默默地	-7305
不死	-7306
感触	-7307
获得	-7308
香烟	-7309
▁弯弯	-7310
▁找寻	-7311
▁指尖	-7312
▁那段	-7313
男人的	-7314
绿色的	-7315
角落里	-7316
起潮落	-7317
▁留不住	-7318
▁请给我	-7319
▁这份爱	-7320
▁你的眼睛	-7321
ir	-7322
ke	-7323
之路	-7324
又在	-7325
小姐	-7326
尝试	-7327
活该	-7328
▁值得	-7329
▁淹没	-7330
▁牵挂	-7331
▁超越	-7332
不放手	-7333
再继续	-7334
回到了	-7335
多一些	-7336
有谁能	-7337
比我更	-7338
▁你不懂	-7339
▁那里有	-7340
泪流满面	-7341
一寸	-7342
你没	-7343
偶遇	-7344
出戏	-7345
动于	-7346
动力	-7347
堡垒	-7348
心有	-7349
百花	-7350
飘渺	-7351
▁握紧	-7352
留给你	-7353
的夜空	-7354
的星光	-7355
的约定	-7356
你的笑脸	-7357
▁跌	-7358
心声	-7359
深埋	-7360
的神	-7361
终会	-7362
艰险	-7363
融入	-7364
迁就	-7365
风声	-7366
风月	-7367
▁天黑	-7368
一万年	-7369
偷偷的	-7370
再回头	-7371
再相遇	-7372
即若离	-7373
却无法	-7374
在风里	-7375
的肩膀	-7376
都不怕	-7377
是我们的	-7378
▁晨	-7379
不让	-7380
前尘	-7381
土壤	-7382
尘土	-7383
抓紧	-7384
故里	-7385
浇灌	-7386
红妆	-7387
难堪	-7388
▁我那	-7389
▁雨水	-7390
受伤害	-7391
我们是	-7392
放不开	-7393
▁多少年	-7394
▁心爱的	-7395
▁我不会再	-7396
pp	-7397
似海	-7398
你曾	-7399
尽力	-7400
岸边	-7401
得过	-7402
无名	-7403
渲染	-7404
潮水	-7405
灰暗	-7406
说一句	-7407
说不出口	-7408
▁也许是我	-7409
一程	-7410
不通	-7411
又来	-7412
叫醒	-7413
号码	-7414
呵呵	-7415
山歌	-7416
微凉	-7417
掀起	-7418
爱河	-7419
自有	-7420
荒谬	-7421
阻止	-7422
▁又见	-7423
▁听到	-7424
▁流泪	-7425
动于衷	-7426
在人海	-7427
没结果	-7428
那么美	-7429
▁再没有	-7430
▁望着你	-7431
▁这种感觉	-7432
一晚	-7433
似是	-7434
利路	-7435
千言	-7436
嗨哟	-7437
愿你	-7438
揭开	-7439
的她	-7440
礼貌	-7441
转弯	-7442
顽强	-7443
▁Ha	-7444
▁冷漠	-7445
▁情感	-7446
▁灯光	-7447
▁阿妹	-7448
的天地	-7449
的永远	-7450
▁不相信	-7451
▁你依然	-7452
▁忘了吧	-7453
▁我会一直	-7454
ck	-7455
三个	-7456
不痛	-7457
傍晚	-7458
冰封	-7459
未央	-7460
未必	-7461
枕头	-7462
玩具	-7463
障碍	-7464
预兆	-7465
▁一念	-7466
▁手机	-7467
▁烟花	-7468
▁你可曾	-7469
▁总是在	-7470
▁请让我	-7471
支离破碎	-7472
有太多的	-7473
if	-7474
▁达	-7475
不醒	-7476
倦了	-7477
冷酷	-7478
冷风	-7479
品味	-7480
收回	-7481
泪花	-7482
背上	-7483
若无	-7484
说要	-7485
难留	-7486
额头	-7487
▁以前	-7488
▁自古	-7489
▁记录	-7490
又何必	-7491
拿什么	-7492
▁Woo	-7493
▁都怪我	-7494
▁实	-7495
主张	-7496
之巅	-7497
台上	-7498
太早	-7499
子里	-7500
烂漫	-7501
盛放	-7502
着她	-7503
语气	-7504
▁倔强	-7505
▁怎会	-7506
▁爱像	-7507
为谁而	-7508
人群中	-7509
没那么	-7510
的名字	-7511
的执着	-7512
▁算了吧	-7513
▁我的朋友	-7514
▁公	-7515
封信	-7516
恋你	-7517
支持	-7518
未完	-7519
的罪	-7520
祷告	-7521
进来	-7522
风情	-7523
▁聆听	-7524
▁那片	-7525
不让你	-7526
多少的	-7527
留下了	-7528
▁你转身	-7529
上路	-7530
悠然	-7531
敌人	-7532
无痕	-7533
的他	-7534
计划	-7535
避免	-7536
▁依偎	-7537
▁听你	-7538
▁证明	-7539
▁说着	-7540
不见你	-7541
没有我	-7542
注定要	-7543
的中国	-7544
的从前	-7545
着爱的	-7546
▁不管是	-7547
▁让我再	-7548
遥不可及	-7549
▁恭喜恭喜	-7550
永远不分离	-7551
个性	-7552
呜呜	-7553
好比	-7554
庆祝	-7555
才算	-7556
无邪	-7557
消磨	-7558
湿透	-7559
的烟	-7560
蜕变	-7561
锋芒	-7562
鸿雁	-7563
▁千古	-7564
▁跨越	-7565
又一遍	-7566
唱首歌	-7567
有几个	-7568
的祝福	-7569
▁不再有	-7570
▁就是你	-7571
▁男人的	-7572
▁该如何	-7573
你在身边	-7574
相偎相依	-7575
▁困	-7576
▁林	-7577
▁波	-7578
▁皆	-7579
一串	-7580
保证	-7581
光线	-7582
我太	-7583
泥泞	-7584
渡口	-7585
适应	-7586
高贵	-7587
▁山河	-7588
▁谁是	-7589
就像是	-7590
那么久	-7591
▁从没有	-7592
▁我的爱人	-7593
▁素	-7594
不忍	-7595
累积	-7596
▁be	-7597
▁is	-7598
▁片片	-7599
个不停	-7600
挥挥手	-7601
明白我	-7602
▁把自己	-7603
来来来来	-7604
▁围	-7605
▁闯	-7606
万岁	-7607
倾城	-7608
情谊	-7609
梦外	-7610
知足	-7611
锣鼓	-7612
▁儿女	-7613
▁总想	-7614
▁欲望	-7615
▁缓缓	-7616
千万里	-7617
▁我与你	-7618
▁爸爸妈妈	-7619
住进	-7620
凝结	-7621
句句	-7622
天外	-7623
意识	-7624
昂首	-7625
欢欣	-7626
破了	-7627
种下	-7628
笑过	-7629
能懂	-7630
那条	-7631
▁有过	-7632
▁激情	-7633
▁童年	-7634
的过往	-7635
还有我	-7636
▁如果有	-7637
纷纷扰扰	-7638
▁这是一个	-7639
想你的时候	-7640
以往	-7641
假的	-7642
偶像	-7643
半点	-7644
可悲	-7645
故作	-7646
鞭炮	-7647
▁一滴	-7648
▁却没	-7649
▁心却	-7650
▁成长	-7651
▁母亲	-7652
▁若我	-7653
你不会	-7654
厢情愿	-7655
永远永远	-7656
▁相亲相爱	-7657
▁了	-7658
▁陈	-7659
你呀	-7660
儿时	-7661
圈圈	-7662
太短	-7663
小河	-7664
心醉	-7665
收场	-7666
服输	-7667
▁回眸	-7668
▁并不	-7669
▁情意	-7670
▁我对	-7671
▁流水	-7672
▁老师	-7673
一起去	-7674
听我说	-7675
对谁错	-7676
日子里	-7677
是真的	-7678
金色的	-7679
▁寂寞的	-7680
你的背影	-7681
▁你就这样	-7682
▁懂	-7683
▁油	-7684
冰凉	-7685
时钟	-7686
流传	-7687
海底	-7688
深陷	-7689
牵引	-7690
牵强	-7691
蜃楼	-7692
重量	-7693
铸就	-7694
隐瞒	-7695
风暴	-7696
要怎么	-7697
▁我早已	-7698
▁是否还	-7699
▁是不是我	-7700
▁争	-7701
▁杀	-7702
▁聊	-7703
专心	-7704
傀儡	-7705
吹散	-7706
圆缺	-7707
拳头	-7708
暗示	-7709
登上	-7710
耐心	-7711
静止	-7712
▁一缕	-7713
▁互相	-7714
▁偶然	-7715
▁咱们	-7716
▁日出	-7717
一片天	-7718
你还是	-7719
向前冲	-7720
身上的	-7721
▁我看到	-7722
花开花落	-7723
▁喂	-7724
▁封	-7725
▁展	-7726
一望	-7727
不明	-7728
俘虏	-7729
圈套	-7730
悠长	-7731
相忘	-7732
立地	-7733
自作	-7734
ill	-7735
▁觉得	-7736
▁透过	-7737
下着雨	-7738
不下的	-7739
了很久	-7740
从没有	-7741
到深处	-7742
变得很	-7743
▁Hey	-7744
▁看着我	-7745
▁不管未来	-7746
万人	-7747
嘴里	-7748
嚣张	-7749
快来	-7750
沉浮	-7751
的车	-7752
赐予	-7753
迎来	-7754
▁你将	-7755
▁你来	-7756
▁太过	-7757
▁绝望	-7758
又一天	-7759
有我的	-7760
的背后	-7761
▁再见了	-7762
▁孤独的	-7763
▁生命中	-7764
一双翅膀	-7765
▁挂	-7766
▁敲	-7767
▁熬	-7768
▁非	-7769
女生	-7770
富有	-7771
悸动	-7772
托起	-7773
春夏	-7774
汇聚	-7775
活的	-7776
穿着	-7777
耶耶	-7778
舒服	-7779
过眼	-7780
重叠	-7781
▁相伴	-7782
▁谁把	-7783
更好的	-7784
的小孩	-7785
出卖	-7786
安好	-7787
巨龙	-7788
更高	-7789
灌醉	-7790
顶天	-7791
▁你最	-7792
▁追求	-7793
化成灰	-7794
就让我	-7795
就这么	-7796
▁无情的	-7797
▁华	-7798
得失	-7799
怎可	-7800
有种	-7801
未变	-7802
洗礼	-7803
祭奠	-7804
蜡烛	-7805
▁彷佛	-7806
▁我家	-7807
▁推开	-7808
▁靠近	-7809
在回忆	-7810
带不走	-7811
的气息	-7812
▁我还能	-7813
▁走过的	-7814
▁窗	-7815
不被	-7816
偷走	-7817
出我	-7818
忙忙	-7819
更远	-7820
正义	-7821
比赛	-7822
毡房	-7823
秋雨	-7824
终生	-7825
西北	-7826
解放	-7827
那颗	-7828
ore	-7829
▁万物	-7830
▁不在	-7831
▁让他	-7832
各一方	-7833
长大了	-7834
▁只不过	-7835
我的爱人	-7836
▁哼	-7837
▁磨	-7838
万种	-7839
咱们	-7840
外套	-7841
形状	-7842
早点	-7843
浮生	-7844
睡了	-7845
▁大雨	-7846
▁投入	-7847
▁有着	-7848
▁未知	-7849
▁本来	-7850
不适合	-7851
掉下来	-7852
玫瑰花	-7853
着了魔	-7854
红色的	-7855
▁你没有	-7856
▁在心里	-7857
▁昨天的	-7858
不是你的	-7859
重新来过	-7860
▁不知何时	-7861
▁又是一个	-7862
▁互	-7863
▁摘	-7864
▁斗	-7865
不易	-7866
共舞	-7867
婵娟	-7868
港口	-7869
碰撞	-7870
▁和谐	-7871
▁有爱	-7872
尽全力	-7873
算不算	-7874
靠自己	-7875
▁谁都不	-7876
▁从此不再	-7877
▁你的世界	-7878
▁我们曾经	-7879
在我的心里	-7880
▁劝	-7881
一轮	-7882
也罢	-7883
假意	-7884
吞没	-7885
啊摇	-7886
当你	-7887
知音	-7888
纯净	-7889
话说	-7890
韶华	-7891
▁伤口	-7892
▁心灵	-7893
▁聚散	-7894
▁隔着	-7895
之不去	-7896
华丽的	-7897
想到你	-7898
我依然	-7899
记得吗	-7900
▁无论我	-7901
一棵	-7902
也难	-7903
停靠	-7904
填补	-7905
广场	-7906
恩爱	-7907
无愧	-7908
灰尘	-7909
狂热	-7910
▁上天	-7911
▁前尘	-7912
▁总要	-7913
▁把酒	-7914
▁放肆	-7915
▁浓浓	-7916
▁脆弱	-7917
▁脸上	-7918
有多深	-7919
的眼光	-7920
的街道	-7921
▁以为你	-7922
▁只要能	-7923
▁我是否	-7924
▁我自己	-7925
▁这一路	-7926
反反复复	-7927
▁一个人在	-7928
回到我身边	-7929
不已	-7930
中我	-7931
交替	-7932
分明	-7933
好奇	-7934
尾巴	-7935
心内	-7936
无味	-7937
无敌	-7938
泉水	-7939
的窗	-7940
▁一把	-7941
▁三月	-7942
▁花落	-7943
▁许下	-7944
▁释放	-7945
▁青丝	-7946
还有你	-7947
▁你不在	-7948
▁永远都	-7949
▁你知不知道	-7950
▁仙	-7951
▁门	-7952
伤人	-7953
到此	-7954
呀么	-7955
好似	-7956
征程	-7957
成败	-7958
▁自然	-7959
你已经	-7960
那一个	-7961
▁得不到	-7962
▁我也想	-7963
你的容颜	-7964
▁衣	-7965
▁赢	-7966
候鸟	-7967
别走	-7968
听听	-7969
多好	-7970
希冀	-7971
快的	-7972
早餐	-7973
红酒	-7974
这条	-7975
▁几度	-7976
▁天真	-7977
▁那怕	-7978
一盏灯	-7979
把我的	-7980
无声的	-7981
经不起	-7982
迷失了	-7983
▁你要我	-7984
▁谁又能	-7985
▁这感觉	-7986
▁如果没有	-7987
在我的身边	-7988
▁塞	-7989
▁欠	-7990
书写	-7991
功夫	-7992
同情	-7993
如你	-7994
沙场	-7995
笛声	-7996
身在	-7997
镜头	-7998
霓裳	-7999
的身体	-8000
过去了	-8001
▁你不必	-8002
▁你看那	-8003
朝朝暮暮	-8004
一堆	-8005
上我	-8006
不累	-8007
分之	-8008
双臂	-8009
惶恐	-8010
戒指	-8011
歌谣	-8012
流离	-8013
演绎	-8014
爱会	-8015
琉璃	-8016
线索	-8017
经常	-8018
装进	-8019
证据	-8020
▁再会	-8021
▁处处	-8022
▁甘愿	-8023
▁相见	-8024
一阵风	-8025
保护你	-8026
现实的	-8027
褪色的	-8028
错过的	-8029
▁为何要	-8030
▁你喜欢	-8031
▁当爱情	-8032
▁找一个	-8033
▁让我在	-8034
一次一次	-8035
▁南无阿弥陀佛	-8036
▁拖	-8037
▁松	-8038
与地	-8039
二三	-8040
对话	-8041
当歌	-8042
拾起	-8043
琢磨	-8044
由我	-8045
细细	-8046
要的	-8047
▁回味	-8048
▁眼里	-8049
到这里	-8050
看见我	-8051
缠绵绵	-8052
▁在心中	-8053
▁离不开	-8054
东风	-8055
似火	-8056
咚咚	-8057
有何	-8058
轻抚	-8059
▁才有	-8060
▁编织	-8061
众不同	-8062
永相随	-8063
能让我	-8064
▁你在我	-8065
▁爱就是	-8066
▁留下了	-8067
你的眼神	-8068
▁精	-8069
发亮	-8070
可见	-8071
外衣	-8072
完了	-8073
小丑	-8074
找你	-8075
担忧	-8076
汽车	-8077
破坏	-8078
那句	-8079
靠岸	-8080
▁今后	-8081
▁无可	-8082
一切的	-8083
你心里	-8084
因你而	-8085
城市里	-8086
心灵的	-8087
▁就不会	-8088
▁等待着	-8089
▁记忆中	-8090
你的身边	-8091
▁为你付出	-8092
依呀	-8093
到这	-8094
客气	-8095
爱里	-8096
的每	-8097
都变	-8098
革命	-8099
▁管它	-8100
▁趁着	-8101
▁飞翔	-8102
从来没	-8103
妈妈的	-8104
这些年	-8105
▁不要让	-8106
▁你不再	-8107
▁把我的	-8108
▁为什么要	-8109
dy	-8110
▁负	-8111
▁退	-8112
喔喔	-8113
宠坏	-8114
急着	-8115
招手	-8116
更深	-8117
梭哈	-8118
痊愈	-8119
越多	-8120
黄土	-8121
▁不负	-8122
▁伊人	-8123
▁穿梭	-8124
利路亚	-8125
终人散	-8126
▁孤单的	-8127
你的心里	-8128
多年以后	-8129
爱一个人	-8130
▁荒	-8131
▁造	-8132
一时	-8133
不穿	-8134
保佑	-8135
停停	-8136
可有	-8137
回音	-8138
对他	-8139
平衡	-8140
得住	-8141
春水	-8142
铭刻	-8143
长路	-8144
风华	-8145
▁宇宙	-8146
▁很久	-8147
▁画面	-8148
▁谁愿	-8149
做一个	-8150
只是个	-8151
已足够	-8152
日日夜夜	-8153
海枯石烂	-8154
▁我的心已	-8155
ye	-8156
▁包	-8157
听说	-8158
呼啸	-8159
将它	-8160
心慌	-8161
掉进	-8162
最难	-8163
未够	-8164
臂膀	-8165
跳跃	-8166
还想	-8167
▁我恨	-8168
▁花香	-8169
一开始	-8170
不存在	-8171
出你的	-8172
犯的错	-8173
的往事	-8174
的心房	-8175
的曾经	-8176
爱我的人	-8177
▁墨	-8178
了爱	-8179
事业	-8180
动情	-8181
原野	-8182
壮丽	-8183
无暇	-8184
蒙古	-8185
蒲公	-8186
诗意	-8187
赐我	-8188
重温	-8189
风波	-8190
▁保持	-8191
▁像你	-8192
▁别问	-8193
▁有情	-8194
了解我	-8195
所谓的	-8196
把一切	-8197
的感受	-8198
▁到如今	-8199
▁却还是	-8200
▁好兄弟	-8201
▁风吹过	-8202
风吹雨打	-8203
不应	-8204
争气	-8205
人儿	-8206
加倍	-8207
取暖	-8208
回顾	-8209
当然	-8210
深海	-8211
神州	-8212
花海	-8213
赚钱	-8214
▁你都	-8215
▁有钱	-8216
▁来日	-8217
干一杯	-8218
改变了	-8219
有几多	-8220
蒲公英	-8221
起勇气	-8222
▁下辈子	-8223
在我心间	-8224
无动于衷	-8225
永不分离	-8226
VE	-8227
▁闭	-8228
原本	-8229
最多	-8230
次的	-8231
流露	-8232
皮肤	-8233
知心	-8234
▁成就	-8235
▁深夜	-8236
▁老天	-8237
▁风景	-8238
不出来	-8239
你是谁	-8240
大不了	-8241
好想你	-8242
深深地	-8243
等待你	-8244
还是我	-8245
▁到现在	-8246
▁想念你	-8247
▁反反复复	-8248
▁我是一只	-8249
▁勿	-8250
▁拂	-8251
乱世	-8252
反而	-8253
号角	-8254
意乱	-8255
手掌	-8256
河畔	-8257
雨点	-8258
▁做人	-8259
▁晚风	-8260
叭咪吽	-8261
女朋友	-8262
最珍贵	-8263
的春天	-8264
的昨天	-8265
的温度	-8266
▁春风吹	-8267
▁是一种	-8268
▁这城市	-8269
仍是	-8270
删除	-8271
回归	-8272
情郎	-8273
无形	-8274
毫不	-8275
流动	-8276
花丛	-8277
还不	-8278
风干	-8279
飞越	-8280
▁听我	-8281
另一种	-8282
对的人	-8283
徘徊在	-8284
有一些	-8285
▁现在我	-8286
▁还有那	-8287
▁你的美丽	-8288
▁牵你的手	-8289
云霄	-8290
倒退	-8291
太大	-8292
手指	-8293
支撑	-8294
走得	-8295
▁幸运	-8296
▁怕你	-8297
抱紧你	-8298
拥抱着	-8299
的呼吸	-8300
▁只希望	-8301
▁在风中	-8302
不会再有	-8303
▁也许我们	-8304
▁其实我也	-8305
▁让我的心	-8306
陪在你身边	-8307
en	-8308
▁床	-8309
▁挽	-8310
上班	-8311
做好	-8312
凝固	-8313
幕幕	-8314
干杯	-8315
▁活在	-8316
▁逃避	-8317
从不曾	-8318
我的眼	-8319
的信念	-8320
▁就让它	-8321
让你知道	-8322
▁我的心情	-8323
▁-	-8324
▁p	-8325
▁雁	-8326
一同	-8327
俗世	-8328
坐着	-8329
形影	-8330
滔滔	-8331
用来	-8332
痛心	-8333
看那	-8334
细语	-8335
▁平静	-8336
为你写	-8337
你现在	-8338
的一天	-8339
▁傻傻的	-8340
▁默默的	-8341
在你面前	-8342
▁你的名字	-8343
ut	-8344
▁E	-8345
▁卡	-8346
丹青	-8347
也都	-8348
嫉妒	-8349
影踪	-8350
恐怕	-8351
更美	-8352
神圣	-8353
缺少	-8354
翻开	-8355
面上	-8356
飞来	-8357
▁人来	-8358
▁人潮	-8359
▁平淡	-8360
▁早就	-8361
怎么去	-8362
我还在	-8363
▁你想要	-8364
▁爱情是	-8365
▁答应我	-8366
你的出现	-8367
出生	-8368
天籁	-8369
奶茶	-8370
对抗	-8371
寻常	-8372
尘缘	-8373
捕捉	-8374
洒在	-8375
蜻蜓	-8376
谢谢	-8377
责怪	-8378
迎风	-8379
阴天	-8380
阴晴	-8381
随波	-8382
ust	-8383
▁下雨	-8384
▁工作	-8385
▁未曾	-8386
▁难舍	-8387
你的情	-8388
又何妨	-8389
太遥远	-8390
忘记我	-8391
的问题	-8392
▁你一直	-8393
▁我陪你	-8394
▁早知道	-8395
▁有些话	-8396
与你相遇	-8397
幸福快乐	-8398
OU	-8399
一闪	-8400
不像	-8401
今后	-8402
却没	-8403
反侧	-8404
嗨嗨	-8405
婚礼	-8406
守在	-8407
心安	-8408
碰到	-8409
起飞	-8410
酝酿	-8411
▁就怕	-8412
▁浮生	-8413
▁相互	-8414
▁见证	-8415
的信仰	-8416
的彩虹	-8417
的灯光	-8418
着梦想	-8419
▁不小心	-8420
▁古老的	-8421
▁我们就	-8422
▁没有人能	-8423
▁简简单单	-8424
▁啦啦啦啦啦啦啦	-8425
▁呆	-8426
▁妹	-8427
▁旺	-8428
伤我	-8429
兜兜	-8430
对对	-8431
把酒	-8432
清凉	-8433
睡去	-8434
空荡	-8435
西东	-8436
震撼	-8437
黄沙	-8438
▁不说	-8439
▁凝望	-8440
▁无意	-8441
▁轻易	-8442
▁镜子	-8443
安慰我	-8444
爱上我	-8445
用什么	-8446
美如画	-8447
过你的	-8448
ello	-8449
▁我始终	-8450
在我怀里	-8451
▁凉	-8452
▁害	-8453
▁文	-8454
一叶	-8455
不渝	-8456
两岸	-8457
会被	-8458
叶落	-8459
各奔	-8460
影随	-8461
潮汐	-8462
生机	-8463
虚幻	-8464
趣味	-8465
野花	-8466
▁你才	-8467
▁却在	-8468
▁哈哈	-8469
▁神奇	-8470
情人节	-8471
遇到你	-8472
都变成	-8473
▁一句话	-8474
爱你爱你	-8475
▁一次一次	-8476
▁和你在一起	-8477
▁荡	-8478
万般	-8479
擦去	-8480
活力	-8481
石板	-8482
脑后	-8483
衬衫	-8484
遗弃	-8485
那张	-8486
飞鸟	-8487
▁一半	-8488
▁伤痕	-8489
不开心	-8490
放弃了	-8491
的传说	-8492
的那么	-8493
▁也不要	-8494
▁多情的	-8495
▁就是我	-8496
离我远去	-8497
▁又是一年	-8498
一见	-8499
下着	-8500
划破	-8501
发烫	-8502
含泪	-8503
如歌	-8504
富强	-8505
捍卫	-8506
欢唱	-8507
浊酒	-8508
的马	-8509
苦酒	-8510
褪去	-8511
过问	-8512
ear	-8513
▁提醒	-8514
▁父亲	-8515
▁讨厌	-8516
不由衷	-8517
你离开	-8518
我们会	-8519
的色彩	-8520
▁千年的	-8521
▁微笑着	-8522
无法忘记	-8523
了个	-8524
你才	-8525
共享	-8526
散尽	-8527
最真	-8528
条件	-8529
淋漓	-8530
生根	-8531
知晓	-8532
糖果	-8533
遮住	-8534
魂魄	-8535
▁举起	-8536
▁伤害	-8537
▁何苦	-8538
▁完美	-8539
去飞翔	-8540
平淡淡	-8541
▁安静的	-8542
▁离开我	-8543
越走越远	-8544
ce	-8545
▁鱼	-8546
不进	-8547
只因	-8548
相送	-8549
自觉	-8550
这首	-8551
飞花	-8552
way	-8553
▁一双	-8554
▁凌晨	-8555
▁可曾	-8556
▁啊啊	-8557
▁我这	-8558
▁爱了	-8559
▁让心	-8560
▁踏着	-8561
▁黑色	-8562
一口气	-8563
一片片	-8564
▁抬起头	-8565
▁是我太	-8566
▁爱你我	-8567
▁而你却	-8568
欺骗自己	-8569
▁我也不会	-8570
云雾	-8571
你给	-8572
十岁	-8573
在水	-8574
树上	-8575
演出	-8576
西风	-8577
起床	-8578
霜雪	-8579
霞光	-8580
鸟语	-8581
▁in	-8582
▁假使	-8583
▁相识	-8584
▁约定	-8585
▁而今	-8586
▁黄河	-8587
不喜欢	-8588
也不必	-8589
你的泪	-8590
刚刚好	-8591
的火焰	-8592
的烟火	-8593
错再错	-8594
▁阿弥陀佛	-8595
▁疼	-8596
一层	-8597
为人	-8598
何地	-8599
操纵	-8600
沙哑	-8601
秒钟	-8602
香气	-8603
▁最爱	-8604
▁特别	-8605
▁祈祷	-8606
▁跌倒	-8607
▁远远	-8608
▁阵阵	-8609
一幅画	-8610
分合合	-8611
想什么	-8612
拥有的	-8613
着希望	-8614
▁如今却	-8615
▁我也曾	-8616
▁有一些	-8617
▁你有没有	-8618
▁每个人都	-8619
几时	-8620
将心	-8621
慌乱	-8622
摇篮	-8623
暗恋	-8624
熙攘	-8625
贪婪	-8626
▁你好	-8627
▁化成	-8628
▁天堂	-8629
▁带来	-8630
▁眼角	-8631
▁穿上	-8632
▁蓝色	-8633
一朵花	-8634
在歌唱	-8635
就会有	-8636
往哪里	-8637
的沉默	-8638
的相遇	-8639
相依偎	-8640
▁我的情	-8641
一点一滴	-8642
撕心裂肺	-8643
走到哪里	-8644
▁扎	-8645
▁摩	-8646
▁混	-8647
▁穷	-8648
一意	-8649
交给	-8650
厉害	-8651
奋力	-8652
将要	-8653
恨过	-8654
敏感	-8655
的船	-8656
秋月	-8657
醉倒	-8658
▁LA	-8659
▁何以	-8660
▁掩饰	-8661
故事的	-8662
的心碎	-8663
的悲伤	-8664
轻易的	-8665
▁突然间	-8666
温暖的家	-8667
对你的思念	-8668
na	-8669
▁K	-8670
你你	-8671
倒数	-8672
如火	-8673
小康	-8674
我那	-8675
清新	-8676
的像	-8677
纵横	-8678
良心	-8679
踪迹	-8680
钻石	-8681
飞奔	-8682
▁20	-8683
▁岁岁	-8684
▁才知	-8685
▁闪耀	-8686
也只是	-8687
冷冷的	-8688
▁我试着	-8689
▁梦里的	-8690
的日子里	-8691
最美的风景	-8692
▁改	-8693
三百	-8694
乌有	-8695
出门	-8696
朝霞	-8697
眷顾	-8698
葡萄	-8699
飘雪	-8700
▁但求	-8701
字一句	-8702
感谢你	-8703
▁别害怕	-8704
▁这是你	-8705
▁朝朝暮暮	-8706
不能没有你	-8707
上有	-8708
交集	-8709
别去	-8710
无惧	-8711
欢歌	-8712
独立	-8713
谜底	-8714
负荷	-8715
隐约	-8716
香水	-8717
▁承认	-8718
▁根本	-8719
我爱的	-8720
无限的	-8721
▁我等你	-8722
▁生命的	-8723
▁经过了	-8724
每个角落	-8725
丛林	-8726
两手	-8727
产党	-8728
人情	-8729
因此	-8730
坦荡	-8731
我一	-8732
拿着	-8733
放低	-8734
望穿	-8735
紧扣	-8736
脉脉	-8737
蜜蜂	-8738
附和	-8739
now	-8740
▁一道	-8741
▁上帝	-8742
▁不然	-8743
▁心有	-8744
▁欢喜	-8745
▁海角	-8746
▁烟雨	-8747
▁绝对	-8748
给我们	-8749
▁for	-8750
▁怎么办	-8751
▁没想到	-8752
我的眼泪	-8753
▁不离不弃	-8754
▁慢	-8755
▁浅	-8756
丢下	-8757
两端	-8758
两边	-8759
乎你	-8760
勾勒	-8761
卿卿	-8762
持续	-8763
正好	-8764
被窝	-8765
遍野	-8766
▁so	-8767
▁山高	-8768
▁无缘	-8769
▁爸妈	-8770
依然在	-8771
说抱歉	-8772
逃不过	-8773
▁为了爱	-8774
▁也不能	-8775
▁我觉得	-8776
▁把你的	-8777
随风而去	-8778
▁我只想要	-8779
▁我爱的人	-8780
▁脸	-8781
入怀	-8782
听话	-8783
咕噜	-8784
太长	-8785
将爱	-8786
忏悔	-8787
性的	-8788
我做	-8789
打动	-8790
最亮	-8791
氧气	-8792
缕缕	-8793
老人	-8794
若现	-8795
▁万事	-8796
▁也能	-8797
▁停止	-8798
▁别管	-8799
▁找回	-8800
化成了	-8801
想你了	-8802
抱着我	-8803
的夏天	-8804
还可以	-8805
▁不回头	-8806
▁失去你	-8807
▁就这么	-8808
▁奥	-8809
为家	-8810
信息	-8811
像那	-8812
冷淡	-8813
外的	-8814
废话	-8815
我曾	-8816
把梦	-8817
有意	-8818
脊梁	-8819
表示	-8820
跋涉	-8821
轻盈	-8822
追究	-8823
▁个个	-8824
▁你只	-8825
▁嘿嘿	-8826
▁挣扎	-8827
不寂寞	-8828
不得已	-8829
寒冷的	-8830
看一看	-8831
等着我	-8832
▁不停的	-8833
▁小小的	-8834
▁蓝色的	-8835
可不可以	-8836
爱你的心	-8837
走到最后	-8838
千遍	-8839
可说	-8840
和地	-8841
婉转	-8842
巍巍	-8843
手上	-8844
教会	-8845
是心	-8846
美名	-8847
▁乌云	-8848
去旅行	-8849
如雨下	-8850
很爱你	-8851
我心头	-8852
的天真	-8853
的想念	-8854
▁啊啊啊	-8855
▁这是一	-8856
说我爱你	-8857
▁叮	-8858
价值	-8859
伞下	-8860
你爱	-8861
几句	-8862
分辨	-8863
动摇	-8864
安放	-8865
宠爱	-8866
巴拉	-8867
暗淡	-8868
歌儿	-8869
每段	-8870
炎黄	-8871
紧要	-8872
罢休	-8873
自主	-8874
误解	-8875
▁Wu	-8876
▁st	-8877
▁唱起	-8878
▁放飞	-8879
▁毫无	-8880
▁眼中	-8881
全都是	-8882
变得好	-8883
复一年	-8884
怎么过	-8885
▁今天我	-8886
▁却不知	-8887
我的生命	-8888
放开你的手	-8889
▁抚	-8890
▁李	-8891
一团	-8892
么么	-8893
当真	-8894
心机	-8895
想哭	-8896
漫游	-8897
牢牢	-8898
自卑	-8899
迟到	-8900
逐流	-8901
闪电	-8902
▁四海	-8903
▁天气	-8904
▁情话	-8905
▁无非	-8906
▁老婆	-8907
▁耶稣	-8908
也不怕	-8909
努力的	-8910
痴痴的	-8911
的舞台	-8912
的黑夜	-8913
相遇在	-8914
▁一转眼	-8915
▁我忘了	-8916
▁黑暗中	-8917
属于我们的	-8918
▁卷	-8919
▁预	-8920
一别	-8921
千个	-8922
喜乐	-8923
孕育	-8924
操场	-8925
树梢	-8926
灰烬	-8927
真谛	-8928
肝胆	-8929
面目	-8930
ver	-8931
▁是个	-8932
▁欢笑	-8933
▁说声	-8934
▁还未	-8935
▁陷入	-8936
望着你	-8937
灰色的	-8938
看到我	-8939
说一声	-8940
▁自己的	-8941
生命中的	-8942
▁哟	-8943
▁荷	-8944
三分	-8945
微弱	-8946
淘气	-8947
蹦蹦	-8948
▁失败	-8949
▁寂静	-8950
了一切	-8951
就不再	-8952
的眼眸	-8953
的芬芳	-8954
请不要	-8955
▁就算再	-8956
▁直到你	-8957
▁这条路	-8958
魂牵梦绕	-8959
▁Yeah	-8960
▁寻寻觅觅	-8961
▁明明知道	-8962
▁幽	-8963
▁激	-8964
复活	-8965
如初	-8966
的愁	-8967
盼你	-8968
笑意	-8969
解决	-8970
贪恋	-8971
贫穷	-8972
▁ba	-8973
▁也想	-8974
▁冲破	-8975
▁认真	-8976
▁谁曾	-8977
受不了	-8978
这份情	-8979
长长的	-8980
▁哎呀呀	-8981
▁我一直在	-8982
▁酸甜苦辣	-8983
冲淡	-8984
凝视	-8985
披上	-8986
榜样	-8987
猜疑	-8988
离散	-8989
试探	-8990
进行	-8991
逆流	-8992
醉人	-8993
青天	-8994
▁不为	-8995
▁前面	-8996
▁看似	-8997
▁谎言	-8998
▁都要	-8999
敌不过	-9000
更精彩	-9001
飞呀飞	-9002
▁你的手	-9003
▁情人节	-9004
▁我不管	-9005
为了什么	-9006
顶天立地	-9007
▁救	-9008
一群	-9009
乎我	-9010
乐趣	-9011
否则	-9012
期限	-9013
祖先	-9014
苍老	-9015
踪影	-9016
避风	-9017
▁do	-9018
▁宁静	-9019
▁寒风	-9020
▁就别	-9021
▁当作	-9022
▁指引	-9023
▁答案	-9024
世间的	-9025
冬天的	-9026
在乎你	-9027
未知的	-9028
永远是	-9029
的决定	-9030
谈恋爱	-9031
▁好好的	-9032
▁留下的	-9033
身不由己	-9034
▁和我一起	-9035
▁客	-9036
▁挑	-9037
再没	-9038
喉咙	-9039
宣布	-9040
小说	-9041
恰恰	-9042
早日	-9043
酿成	-9044
钥匙	-9045
阴影	-9046
ang	-9047
▁恍惚	-9048
▁残留	-9049
在乎我	-9050
市蜃楼	-9051
明天的	-9052
爱我吗	-9053
虚伪的	-9054
▁我看着	-9055
一醉	-9056
乡亲	-9057
在家	-9058
已深	-9059
惧怕	-9060
战胜	-9061
至今	-9062
荣华	-9063
跳着	-9064
▁哎哟	-9065
你真的	-9066
呼唤你	-9067
唱起来	-9068
找一个	-9069
把歌唱	-9070
的空间	-9071
被时间	-9072
▁而我却	-9073
▁都是你	-9074
万水千山	-9075
念念不忘	-9076
着你的脸	-9077
这么多年	-9078
▁忘不了你	-9079
▁唤	-9080
▁灵	-9081
一粒	-9082
了路	-9083
倾心	-9084
只怕	-9085
唇边	-9086
斟满	-9087
气球	-9088
落日	-9089
铿锵	-9090
高声	-9091
黄金	-9092
▁BA	-9093
▁不够	-9094
▁山盟	-9095
我也会	-9096
昨日的	-9097
▁don	-9098
▁才能够	-9099
就在前方	-9100
我的眼睛	-9101
是那么的	-9102
▁你的影子	-9103
▁哇	-9104
▁忠	-9105
▁系	-9106
偕老	-9107
古道	-9108
婚纱	-9109
把这	-9110
敲响	-9111
整天	-9112
无双	-9113
沿途	-9114
翻滚	-9115
芳菲	-9116
苦短	-9117
贵州	-9118
▁不变	-9119
▁啊哈	-9120
▁失眠	-9121
▁快点	-9122
▁我真	-9123
▁藏在	-9124
的缘分	-9125
走过了	-9126
▁can	-9127
▁我爱上	-9128
▁不顾一切	-9129
▁还有多少	-9130
▁u	-9131
到那	-9132
却已	-9133
四周	-9134
太迟	-9135
战士	-9136
的月	-9137
虚度	-9138
输了	-9139
错觉	-9140
问号	-9141
颠簸	-9142
▁房间	-9143
▁拜托	-9144
再见面	-9145
在原地	-9146
太认真	-9147
我们曾	-9148
来无恙	-9149
等待着	-9150
萤火虫	-9151
铭心的	-9152
▁唵嘛呢	-9153
▁想起了	-9154
▁爱不是	-9155
的那个人	-9156
▁滚滚红尘	-9157
▁切	-9158
▁响	-9159
一副	-9160
不只	-9161
丰富	-9162
兴旺	-9163
初次	-9164
可曾	-9165
和爱	-9166
小船	-9167
无疆	-9168
淘汰	-9169
相亲	-9170
负责	-9171
ine	-9172
▁da	-9173
▁或是	-9174
▁莫问	-9175
一生中	-9176
不停歇	-9177
人生路	-9178
我心扉	-9179
的梦境	-9180
▁不应该	-9181
▁幸福是	-9182
▁时间会	-9183
▁错过的	-9184
▁除了你	-9185
▁再也没有	-9186
▁如果真的	-9187
叶子	-9188
性感	-9189
惊慌	-9190
时差	-9191
穿透	-9192
芳草	-9193
谁也	-9194
过分	-9195
露水	-9196
青草	-9197
顾忌	-9198
▁天荒	-9199
▁尘封	-9200
▁抱着	-9201
下雨天	-9202
再见你	-9203
▁就像那	-9204
▁那一夜	-9205
回到过去	-9206
▁爱你爱到	-9207
传承	-9208
假象	-9209
当中	-9210
想他	-9211
爆炸	-9212
红豆	-9213
遍了	-9214
雪白	-9215
▁全力	-9216
一个字	-9217
在你我	-9218
好好过	-9219
抓不住	-9220
淅沥沥	-9221
的天使	-9222
的孤独	-9223
的折磨	-9224
▁早已经	-9225
一往情深	-9226
不会改变	-9227
与众不同	-9228
看你一眼	-9229
▁春去秋来	-9230
ld	-9231
▁唿	-9232
一本	-9233
其妙	-9234
凡尘	-9235
废墟	-9236
欲穿	-9237
流光	-9238
爱吧	-9239
翻涌	-9240
胆怯	-9241
虚荣	-9242
飘逸	-9243
▁夜幕	-9244
▁绝不	-9245
▁缘来	-9246
▁美人	-9247
大草原	-9248
总是在	-9249
悲伤的	-9250
的影子	-9251
该不该	-9252
这么久	-9253
▁我们会	-9254
▁我选择	-9255
▁该不该	-9256
为你歌唱	-9257
人来人往	-9258
▁潜	-9259
▁誓	-9260
儿郎	-9261
前缘	-9262
忍着	-9263
摸索	-9264
最最	-9265
来日	-9266
池塘	-9267
睁睁	-9268
绿的	-9269
罪恶	-9270
腾飞	-9271
长出	-9272
▁欣赏	-9273
▁爱会	-9274
▁背叛	-9275
了爱情	-9276
喜欢的	-9277
爱一回	-9278
眼里的	-9279
结束了	-9280
让世界	-9281
▁就请你	-9282
▁我再也	-9283
▁现在就	-9284
你不爱我	-9285
像我一样	-9286
▁一切都是	-9287
▁最后还是	-9288
不能在一起	-9289
在山	-9290
愚昧	-9291
懒得	-9292
把他	-9293
拉萨	-9294
浓烈	-9295
点头	-9296
结伴	-9297
诚意	-9298
重头	-9299
▁传递	-9300
▁你笑	-9301
▁狠狠	-9302
▁眼看	-9303
就不要	-9304
的泪光	-9305
这段情	-9306
▁不能再	-9307
▁我会用	-9308
▁我是个	-9309
▁爱过的	-9310
▁相爱的	-9311
到你身旁	-9312
山盟海誓	-9313
我心中的	-9314
▁急	-9315
▁近	-9316
大雪	-9317
意志	-9318
撑伞	-9319
昼夜	-9320
比谁	-9321
沉沉	-9322
满脸	-9323
相似	-9324
纷乱	-9325
羽毛	-9326
聚首	-9327
肩头	-9328
走散	-9329
难了	-9330
▁单纯	-9331
▁团结	-9332
▁待到	-9333
得到你	-9334
的爱我	-9335
认真的	-9336
▁都是我	-9337
是一场梦	-9338
言不由衷	-9339
▁美丽的姑娘	-9340
▁祂	-9341
了的	-9342
后我	-9343
微光	-9344
春去	-9345
篇章	-9346
▁两人	-9347
▁天色	-9348
▁定格	-9349
▁梨花	-9350
▁留恋	-9351
▁短暂	-9352
▁缠绕	-9353
▁若有	-9354
▁遇上	-9355
与你共	-9356
在怀里	-9357
心里话	-9358
猜不透	-9359
的地点	-9360
过天晴	-9361
▁有人说	-9362
▁给自己	-9363
▁还有你	-9364
也是一种	-9365
你的双手	-9366
十字路口	-9367
忘不了你	-9368
懂得珍惜	-9369
春暖花开	-9370
在你的身旁	-9371
▁住	-9372
▁钱	-9373
播种	-9374
爱慕	-9375
环境	-9376
男女	-9377
肤浅	-9378
赶快	-9379
输赢	-9380
酒精	-9381
飞飞	-9382
hat	-9383
▁因你	-9384
▁我给	-9385
▁抚平	-9386
▁目光	-9387
一场空	-9388
不停留	-9389
过的话	-9390
都给你	-9391
▁做一个	-9392
▁别忘了	-9393
无可救药	-9394
▁魂	-9395
失踪	-9396
宣告	-9397
尖叫	-9398
暖意	-9399
沉寂	-9400
沟通	-9401
浪潮	-9402
渗透	-9403
牢笼	-9404
的高	-9405
缓慢	-9406
▁倾听	-9407
▁善良	-9408
▁自信	-9409
一幕幕	-9410
在空中	-9411
彻底的	-9412
有时候	-9413
的无奈	-9414
▁你应该	-9415
▁别再说	-9416
▁并不是	-9417
▁深深的	-9418
亲爱的你	-9419
▁千山万水	-9420
▁我愿为你	-9421
三点	-9422
人啊	-9423
写在	-9424
向右	-9425
吻我	-9426
天色	-9427
思索	-9428
整理	-9429
服务	-9430
此情	-9431
祥和	-9432
织女	-9433
▁一笑	-9434
▁划过	-9435
▁望穿	-9436
▁梦回	-9437
抹不去	-9438
的思绪	-9439
的愿望	-9440
▁我就像	-9441
▁看到你	-9442
曾经拥有	-9443
▁want	-9444
▁事到如今	-9445
▁我愿意为你	-9446
▁复	-9447
▁梅	-9448
会很	-9449
大山	-9450
想说	-9451
换你	-9452
旁观	-9453
海风	-9454
深邃	-9455
缥缈	-9456
老爸	-9457
苍生	-9458
街灯	-9459
表面	-9460
送给	-9461
▁乱世	-9462
▁啦啦	-9463
▁我多	-9464
▁放纵	-9465
▁敞开	-9466
▁来去	-9467
▁漂亮	-9468
▁相守	-9469
▁红色	-9470
乱如麻	-9471
停下来	-9472
热情的	-9473
的理想	-9474
一分一秒	-9475
和你相遇	-9476
我的灵魂	-9477
每分每秒	-9478
▁垂	-9479
一处	-9480
下你	-9481
丢弃	-9482
亲像	-9483
凛冽	-9484
坏的	-9485
夫妻	-9486
子弹	-9487
开着	-9488
拂过	-9489
握着	-9490
橱窗	-9491
海水	-9492
用情	-9493
眉眼	-9494
终止	-9495
西藏	-9496
都可	-9497
雕刻	-9498
▁乘着	-9499
▁情缘	-9500
▁旋律	-9501
▁沐浴	-9502
▁流淌	-9503
你永远	-9504
出我的	-9505
星红旗	-9506
的边缘	-9507
▁一直在	-9508
▁我也要	-9509
▁我们俩	-9510
▁永远的	-9511
▁猜不透	-9512
▁还没有	-9513
兄弟姐妹	-9514
我的身旁	-9515
▁一不小心	-9516
▁铺	-9517
不足	-9518
建设	-9519
形象	-9520
旧时	-9521
正常	-9522
滂沱	-9523
潇潇	-9524
珍珠	-9525
盏灯	-9526
能再	-9527
苦与	-9528
调皮	-9529
雨声	-9530
▁it	-9531
▁翩翩	-9532
▁雄鹰	-9533
一条路	-9534
不尽的	-9535
也一样	-9536
的关系	-9537
送我的	-9538
▁say	-9539
▁那就是	-9540
一个拥抱	-9541
相爱的人	-9542
一刀	-9543
万个	-9544
主义	-9545
任你	-9546
又会	-9547
外婆	-9548
巧克	-9549
广阔	-9550
无瑕	-9551
星座	-9552
欢聚	-9553
相通	-9554
逛街	-9555
金钱	-9556
▁LO	-9557
▁下个	-9558
▁你对	-9559
▁向往	-9560
▁咿呀	-9561
▁好似	-9562
▁挥手	-9563
▁日日	-9564
▁说过	-9565
▁阿妈	-9566
在人间	-9567
夏天的	-9568
好时光	-9569
对与错	-9570
有许多	-9571
眼欲穿	-9572
紧紧的	-9573
被风吹	-9574
跟我走	-9575
▁你不是	-9576
▁淡淡的	-9577
▁留给我	-9578
去了哪里	-9579
在我面前	-9580
夜深人静	-9581
头也不回	-9582
▁你的背影	-9583
......	-9584
▁对你的思念	-9585
▁没有你的日子	-9586
▁俯	-9587
▁催	-9588
▁扑	-9589
一现	-9590
一瞬	-9591
丢失	-9592
于你	-9593
亲近	-9594
大方	-9595
好看	-9596
并非	-9597
战争	-9598
抽离	-9599
死的	-9600
浮萍	-9601
英勇	-9602
行人	-9603
金黄	-9604
▁卸下	-9605
▁挣脱	-9606
▁昔日	-9607
了我们	-9608
发现我	-9609
心相连	-9610
格桑花	-9611
▁你爱的	-9612
▁我到底	-9613
▁消失在	-9614
到了尽头	-9615
把我忘记	-9616
▁让我为你	-9617
▁领	-9618
去去	-9619
平庸	-9620
打转	-9621
来做	-9622
来陪	-9623
蚂蚁	-9624
飘向	-9625
▁不安	-9626
▁不觉	-9627
▁单身	-9628
▁愿望	-9629
▁数着	-9630
▁盼你	-9631
▁豪情	-9632
崭新的	-9633
开心心	-9634
我心房	-9635
我是个	-9636
的付出	-9637
的骄傲	-9638
睁开眼	-9639
▁也不是	-9640
▁也可以	-9641
▁也是我	-9642
不会忘记	-9643
你的心情	-9644
在我左右	-9645
▁毋	-9646
▁逐	-9647
之光	-9648
也算	-9649
伤得	-9650
出走	-9651
回避	-9652
外表	-9653
大了	-9654
惭愧	-9655
爱火	-9656
菊花	-9657
衣衫	-9658
赶走	-9659
途中	-9660
▁一眼	-9661
▁再来	-9662
▁凤凰	-9663
▁走了	-9664
▁问你	-9665
▁风在	-9666
好风光	-9667
▁也无法	-9668
▁原来是	-9669
▁就让你	-9670
▁看见你	-9671
▁空气中	-9672
我所有的	-9673
浪迹天涯	-9674
真心真意	-9675
▁know	-9676
▁撩	-9677
▁物	-9678
便是	-9679
唱片	-9680
奔驰	-9681
巨浪	-9682
心肠	-9683
比翼	-9684
清水	-9685
罪过	-9686
背着	-9687
苦海	-9688
蜜意	-9689
路远	-9690
连成	-9691
▁原本	-9692
▁必须	-9693
▁愿我	-9694
▁无助	-9695
不习惯	-9696
不必再	-9697
感受到	-9698
的期待	-9699
错与对	-9700
▁你我的	-9701
▁牵着手	-9702
▁喜怒哀乐	-9703
AN	-9704
倒转	-9705
怨恨	-9706
望见	-9707
水晶	-9708
烈日	-9709
牧场	-9710
猫咪	-9711
红包	-9712
终身	-9713
腼腆	-9714
贴近	-9715
问问	-9716
间的	-9717
飘去	-9718
▁不肯	-9719
▁任我	-9720
▁我唱	-9721
▁空虚	-9722
▁鸳鸯	-9723
也不要	-9724
你给我	-9725
巧克力	-9726
月光下	-9727
灿烂的	-9728
的人海	-9729
的风雨	-9730
▁人世间	-9731
▁再给我	-9732
着我的心	-9733
▁一点一滴	-9734
▁你不知道	-9735
▁你的眼泪	-9736
上那	-9737
再难	-9738
孤身	-9739
它们	-9740
换回	-9741
放得	-9742
栖息	-9743
燕子	-9744
牟尼	-9745
金色	-9746
ime	-9747
▁但却	-9748
▁体会	-9749
▁冥冥	-9750
▁唱得	-9751
▁忧郁	-9752
▁繁星	-9753
▁花瓣	-9754
▁藏着	-9755
▁辽阔	-9756
一天天	-9757
一起唱	-9758
听到你	-9759
挥不去	-9760
的都是	-9761
真正的	-9762
让我心	-9763
▁春天的	-9764
▁那些年	-9765
无法呼吸	-9766
狂风暴雨	-9767
▁我的心在	-9768
▁我知道我	-9769
写成	-9770
分寸	-9771
同时	-9772
察觉	-9773
尽管	-9774
新疆	-9775
晓得	-9776
来我	-9777
爱和	-9778
风铃	-9779
▁万千	-9780
▁无须	-9781
下起了	-9782
是与非	-9783
深爱过	-9784
进我的	-9785
那么大	-9786
▁我期待	-9787
▁谁能够	-9788
▁一点一点	-9789
▁如果爱情	-9790
▁我喜欢你	-9791
▁亮	-9792
▁免	-9793
▁扬	-9794
停息	-9795
兼程	-9796
双双	-9797
喜爱	-9798
堂堂	-9799
实际	-9800
施舍	-9801
期而	-9802
歇斯	-9803
没变	-9804
演戏	-9805
燃起	-9806
的交	-9807
的诗	-9808
胡闹	-9809
难解	-9810
▁No	-9811
▁安慰	-9812
▁相恋	-9813
▁相拥	-9814
▁自我	-9815
▁路过	-9816
有意义	-9817
的缠绵	-9818
看到了	-9819
▁但是你	-9820
▁心里面	-9821
▁忘记你	-9822
▁我怎能	-9823
▁红尘中	-9824
▁说再见	-9825
相依相偎	-9826
▁手牵着手	-9827
▁卖	-9828
不悟	-9829
半个	-9830
受尽	-9831
小时	-9832
情迷	-9833
烟消	-9834
爱越	-9835
离你	-9836
细节	-9837
自强	-9838
迟疑	-9839
迷糊	-9840
雾里	-9841
▁丝丝	-9842
▁历史	-9843
▁展开	-9844
只留下	-9845
想起了	-9846
抵不过	-9847
的伤疤	-9848
的照片	-9849
这条路	-9850
▁也不愿	-9851
▁你是谁	-9852
▁让我来	-9853
▁遥远的	-9854
在你身后	-9855
▁相爱的人	-9856
ma	-9857
▁功	-9858
▁消	-9859
几番	-9860
受过	-9861
嫌弃	-9862
幻影	-9863
惊鸿	-9864
无私	-9865
波涛	-9866
老板	-9867
铁马	-9868
day	-9869
rea	-9870
▁夜半	-9871
▁就此	-9872
▁抓住	-9873
▁散发	-9874
▁有天	-9875
▁累了	-9876
▁统统	-9877
▁追梦	-9878
▁雨后	-9879
和寂寞	-9880
好心情	-9881
我陪你	-9882
是人非	-9883
让彼此	-9884
了我自己	-9885
失去了你	-9886
属于你的	-9887
让我心碎	-9888
▁梦里梦外	-9889
▁印	-9890
▁罗	-9891
▁羊	-9892
仗剑	-9893
信赖	-9894
几人	-9895
四面	-9896
文字	-9897
西下	-9898
角度	-9899
诅咒	-9900
违背	-9901
青年	-9902
▁So	-9903
▁一分	-9904
▁一壶	-9905
▁刺痛	-9906
▁半生	-9907
▁弥漫	-9908
▁胜利	-9909
▁都已	-9910
一场雨	-9911
屋檐下	-9912
走过来	-9913
还有谁	-9914
隐若现	-9915
▁Say	-9916
▁你只是	-9917
▁我要的	-9918
对自己说	-9919
远走高飞	-9920
▁志	-9921
▁酸	-9922
七彩	-9923
个够	-9924
侵蚀	-9925
公路	-9926
去年	-9927
已尽	-9928
平行	-9929
我将	-9930
挡住	-9931
沦为	-9932
空的	-9933
萧萧	-9934
财神	-9935
迎着	-9936
▁三千	-9937
▁否则	-9938
▁真诚	-9939
▁说你	-9940
▁鲜花	-9941
到天边	-9942
好月圆	-9943
安全感	-9944
歇斯底	-9945
深爱的	-9946
秋天的	-9947
▁好想你	-9948
▁这里有	-9949
我的视线	-9950
无法自拔	-9951
是我的错	-9952
▁把我的心	-9953
▁坚	-9954
件事	-9955
十分	-9956
变做	-9957
哪天	-9958
夜雨	-9959
干涸	-9960
明星	-9961
是天	-9962
暖阳	-9963
而上	-9964
闪过	-9965
频率	-9966
▁收起	-9967
▁故人	-9968
不要走	-9969
伴着你	-9970
对你好	-9971
旧时光	-9972
诉说着	-9973
▁你把我	-9974
▁对你说	-9975
▁就让这	-9976
▁让幸福	-9977
▁黑夜里	-9978
情不自禁	-9979
▁我们在一起	-9980
▁杯	-9981
不满	-9982
为止	-9983
光年	-9984
光的	-9985
十九	-9986
可是	-9987
左手	-9988
座城	-9989
是场	-9990
格里	-9991
矜持	-9992
码头	-9993
醉在	-9994
重的	-9995
除了	-9996
▁Da	-9997
▁准备	-9998
▁用你	-9999
▁逃离	-10000
▁都怪	-10001
再相聚	-10002
对不对	-10003
的一个	-10004
笑一笑	-10005
莫名的	-10006
▁不可以	-10007
▁永远不	-10008
今生今世	-10009
还是那么	-10010
▁如果时间	-10011
▁有些事情	-10012
▁仅	-10013
▁爬	-10014
再不	-10015
吹来	-10016
床上	-10017
恩情	-10018
扇门	-10019
无用	-10020
明珠	-10021
映着	-10022
暗暗	-10023
机器	-10024
沙发	-10025
着肩	-10026
知觉	-10027
自问	-10028
诠释	-10029
贴心	-10030
过于	-10031
部分	-10032
铃声	-10033
雨伞	-10034
香甜	-10035
▁不求	-10036
▁忍住	-10037
▁担心	-10038
▁看透	-10039
▁荣耀	-10040
▁遥遥	-10041
一刹那	-10042
在前方	-10043
在蔓延	-10044
拥抱我	-10045
的音乐	-10046
谁都不	-10047
▁总以为	-10048
▁谁不曾	-10049
你的承诺	-10050
全心全意	-10051
灯火阑珊	-10052
▁是你给我	-10053
▁风花雪月	-10054
一会	-10055
人去	-10056
开拓	-10057
开朗	-10058
情爱	-10059
我独	-10060
湮灭	-10061
碎骨	-10062
第二	-10063
荏苒	-10064
迷蒙	-10065
▁伴随	-10066
▁勉强	-10067
▁将你	-10068
▁是最	-10069
▁火车	-10070
▁空荡	-10071
永远远	-10072
转过身	-10073
▁YOU	-10074
▁are	-10075
▁却发现	-10076
▁又一次	-10077
▁对自己	-10078
▁难道是	-10079
什么地方	-10080
千言万语	-10081
告诉你我	-10082
喜怒哀乐	-10083
越来越远	-10084
▁这就是我	-10085
▁闭上双眼	-10086
▁郎	-10087
▁雄	-10088
上人	-10089
两地	-10090
偿还	-10091
傻笑	-10092
光亮	-10093
化身	-10094
安定	-10095
懂你	-10096
懂的	-10097
散开	-10098
来袭	-10099
武器	-10100
派对	-10101
满园	-10102
眉梢	-10103
知否	-10104
要说	-10105
长相	-10106
雪地	-10107
▁On	-10108
▁丢掉	-10109
▁回来	-10110
▁感激	-10111
▁断了	-10112
为了爱	-10113
会想起	-10114
恋爱的	-10115
我就是	-10116
有勇气	-10117
水长流	-10118
沉默的	-10119
▁你说的	-10120
▁我渴望	-10121
▁按	-10122
▁躺	-10123
▁闹	-10124
像风	-10125
安然	-10126
巴黎	-10127
情路	-10128
摇滚	-10129
是真	-10130
梦已	-10131
画中	-10132
的墙	-10133
红线	-10134
纸上	-10135
跟她	-10136
那场	-10137
龙的	-10138
▁不忍	-10139
▁与君	-10140
▁人类	-10141
▁声音	-10142
▁忙碌	-10143
▁泪流	-10144
▁留给	-10145
▁跟随	-10146
名字叫	-10147
在燃烧	-10148
我都会	-10149
▁朋友啊	-10150
▁迎着风	-10151
▁这里是	-10152
与我无关	-10153
关于你的	-10154
回家的路	-10155
说你爱我	-10156
飞蛾扑火	-10157
▁爱与不爱	-10158
▁排	-10159
不倒	-10160
北极	-10161
基督	-10162
左边	-10163
幽默	-10164
打个	-10165
来爱	-10166
枉费	-10167
湖面	-10168
由你	-10169
白衣	-10170
越岭	-10171
这夜	-10172
▁伪装	-10173
▁我被	-10174
▁梦境	-10175
▁电影	-10176
▁落在	-10177
▁谁不	-10178
▁问我	-10179
不能说	-10180
更美丽	-10181
欢迎你	-10182
的精彩	-10183
都会有	-10184
▁爱上了	-10185
▁等待你	-10186
▁我有我的	-10187
▁苏	-10188
世音	-10189
何从	-10190
佳话	-10191
净土	-10192
动地	-10193
抱你	-10194
沦落	-10195
界线	-10196
知你	-10197
绿洲	-10198
边疆	-10199
遭遇	-10200
▁一旦	-10201
▁别要	-10202
▁并肩	-10203
▁梦见	-10204
▁细数	-10205
▁骄傲	-10206
你不在	-10207
听得见	-10208
多美丽	-10209
大声的	-10210
往日的	-10211
▁也不想	-10212
▁去寻找	-10213
▁如今我	-10214
▁如何能	-10215
▁忽然间	-10216
▁我只好	-10217
▁那时的	-10218
的是什么	-10219
▁人来人往	-10220
▁山盟海誓	-10221
▁舍	-10222
▁诉	-10223
初衷	-10224
北风	-10225
各有	-10226
唱吧	-10227
寻你	-10228
恋曲	-10229
托付	-10230
把她	-10231
放空	-10232
模仿	-10233
没完	-10234
流沙	-10235
浪浪	-10236
消遣	-10237
百合	-10238
绵延	-10239
装着	-10240
问谁	-10241
阿爸	-10242
irl	-10243
ith	-10244
▁一见	-10245
▁放眼	-10246
▁脚下	-10247
听你的	-10248
我的好	-10249
▁只可惜	-10250
▁在哪里	-10251
在这一刻	-10252
起起落落	-10253
▁虽然我们	-10254
▁宝	-10255
▁必	-10256
▁骗	-10257
下面	-10258
冷了	-10259
启航	-10260
开创	-10261
徐徐	-10262
拆穿	-10263
拉长	-10264
无休	-10265
樱桃	-10266
灯笼	-10267
的字	-10268
的树	-10269
着他	-10270
着脸	-10271
神的	-10272
笑得	-10273
维持	-10274
黯淡	-10275
▁华夏	-10276
▁哎呦	-10277
▁嘴角	-10278
▁家里	-10279
▁展翅	-10280
▁无惧	-10281
▁日落	-10282
▁时代	-10283
上我的	-10284
我不够	-10285
我都不	-10286
新年好	-10287
的旅程	-10288
的时代	-10289
自以为	-10290
说好的	-10291
身碎骨	-10292
▁不想你	-10293
▁我每天	-10294
▁用一生	-10295
▁让生命	-10296
▁还以为	-10297
你会不会	-10298
那么一天	-10299
▁挨	-10300
人世	-10301
军装	-10302
可会	-10303
家门	-10304
已不	-10305
户户	-10306
抵达	-10307
挂满	-10308
灰心	-10309
的在	-10310
细数	-10311
耳旁	-10312
飘洒	-10313
▁伴你	-10314
▁而是	-10315
▁虔诚	-10316
▁里面	-10317
▁黑白	-10318
不开的	-10319
中的你	-10320
你要走	-10321
我不敢	-10322
最美丽	-10323
有几分	-10324
消失了	-10325
的步伐	-10326
都无法	-10327
▁每一秒	-10328
为你祝福	-10329
▁缺	-10330
一言	-10331
冷眼	-10332
动物	-10333
历经	-10334
双肩	-10335
发了	-10336
周末	-10337
导演	-10338
待我	-10339
心脏	-10340
有关	-10341
环游	-10342
秀发	-10343
退让	-10344
那道	-10345
飘泊	-10346
飞逝	-10347
▁出门	-10348
▁别在	-10349
▁前进	-10350
▁她们	-10351
▁晴天	-10352
▁流连	-10353
▁游戏	-10354
▁阿爸	-10355
手相牵	-10356
明白了	-10357
白了头	-10358
站起来	-10359
都不能	-10360
风吹来	-10361
▁下一秒	-10362
▁期待着	-10363
▁夜深人静	-10364
▁我的青春	-10365
▁春暖花开	-10366
▁肩	-10367
一脸	-10368
升华	-10369
头顶	-10370
无忌	-10371
最远	-10372
染红	-10373
没说	-10374
涌动	-10375
窗帘	-10376
跌宕	-10377
▁像那	-10378
▁勤劳	-10379
▁守望	-10380
▁幸好	-10381
▁怀疑	-10382
▁怎可	-10383
▁每晚	-10384
▁沉睡	-10385
▁网络	-10386
不如意	-10387
不舍得	-10388
关于你	-10389
打电话	-10390
的花儿	-10391
的话题	-10392
▁你的美	-10393
▁在我们	-10394
▁我不该	-10395
▁是否能	-10396
我的感受	-10397
没有勇气	-10398
▁一起走过	-10399
▁只要你能	-10400
▁唵嘛呢叭咪吽	-10401
▁尤	-10402
▁群	-10403
三世	-10404
两难	-10405
亦会	-10406
以对	-10407
呀飘	-10408
埋在	-10409
夸张	-10410
崩塌	-10411
已过	-10412
归于	-10413
我手	-10414
打击	-10415
放慢	-10416
棉花	-10417
浮华	-10418
确实	-10419
羽翼	-10420
蜚语	-10421
衷心	-10422
解答	-10423
连连	-10424
▁Wo	-10425
▁存在	-10426
▁我太	-10427
▁重逢	-10428
下一秒	-10429
的年纪	-10430
黑色的	-10431
▁不必再	-10432
▁还有谁	-10433
就在眼前	-10434
陪你一起	-10435
▁有多少人	-10436
刻骨铭心的	-10437
▁谁能告诉我	-10438
▁着	-10439
▁胜	-10440
主题	-10441
也未	-10442
亦有	-10443
十指	-10444
我吗	-10445
无憾	-10446
是他	-10447
瓦解	-10448
等了	-10449
细胞	-10450
起那	-10451
踏实	-10452
顺利	-10453
▁凝聚	-10454
▁姐姐	-10455
▁孩儿	-10456
▁我仍	-10457
▁烟火	-10458
▁爱如	-10459
伴着我	-10460
我永远	-10461
把所有	-10462
活下去	-10463
牵着你	-10464
远远的	-10465
▁徘徊在	-10466
▁忘了你	-10467
也无所谓	-10468
永远不变	-10469
相亲相爱	-10470
自由飞翔	-10471
▁柔	-10472
▁烦	-10473
一动	-10474
哪有	-10475
情丝	-10476
拉索	-10477
挂着	-10478
擦亮	-10479
无须	-10480
殿堂	-10481
沉没	-10482
狼烟	-10483
▁一朝	-10484
▁别把	-10485
▁千秋	-10486
▁无忧	-10487
▁清清	-10488
▁清醒	-10489
只不过	-10490
多少人	-10491
有你在	-10492
的孤单	-10493
▁and	-10494
▁冰冷的	-10495
▁我在这	-10496
▁请相信	-10497
闭上双眼	-10498
▁你知道我	-10499
▁爱的路上	-10500
万缕	-10501
与他	-10502
久了	-10503
光景	-10504
前走	-10505
半空	-10506
唻唻	-10507
好远	-10508
嫁衣	-10509
强大	-10510
忽近	-10511
恋恋	-10512
摆摆	-10513
治愈	-10514
海鸥	-10515
牵动	-10516
经年	-10517
苦楚	-10518
落尽	-10519
踏着	-10520
逃亡	-10521
频频	-10522
▁心头	-10523
▁爱意	-10524
也不再	-10525
何时能	-10526
流着泪	-10527
满天的	-10528
的土地	-10529
▁你一定	-10530
▁你说要	-10531
▁我还有	-10532
挥之不去	-10533
▁你对我说	-10534
▁我们都在	-10535
▁时时刻刻	-10536
▁难道是我	-10537
▁休	-10538
▁傲	-10539
▁渡	-10540
一听	-10541
一旁	-10542
不败	-10543
串串	-10544
了断	-10545
事事	-10546
仙女	-10547
以沫	-10548
决堤	-10549
刺眼	-10550
唯有	-10551
囚禁	-10552
弹着	-10553
春花	-10554
有趣	-10555
样样	-10556
生来	-10557
画意	-10558
的黑	-10559
纸伞	-10560
装傻	-10561
诀别	-10562
蹒跚	-10563
陨落	-10564
麻痹	-10565
▁一时	-10566
▁你快	-10567
▁往后	-10568
▁男儿	-10569
不流泪	-10570
再相逢	-10571
到未来	-10572
哪一天	-10573
如何去	-10574
彼此都	-10575
暴风雨	-10576
的心痛	-10577
的问候	-10578
难过的	-10579
靠近我	-10580
▁世界上	-10581
▁好不好	-10582
▁无论是	-10583
▁等你来	-10584
不可思议	-10585
只是一个	-10586
▁我一定会	-10587
一年又一年	-10588
hy	-10589
▁抖	-10590
▁辛	-10591
于心	-10592
大人	-10593
尊重	-10594
开的	-10595
昆仑	-10596
有幸	-10597
格外	-10598
独处	-10599
自愿	-10600
茁壮	-10601
装扮	-10602
▁恰似	-10603
▁清澈	-10604
为了我	-10605
共产党	-10606
只爱你	-10607
哪一个	-10608
大大的	-10609
开心扉	-10610
无奈的	-10611
献给你	-10612
的冬天	-10613
▁一天天	-10614
▁再见吧	-10615
▁剩下的	-10616
▁有的人	-10617
▁让一切	-10618
一切都是	-10619
一遍一遍	-10620
我的朋友	-10621
▁你的声音	-10622
▁有没有人	-10623
▁轰轰烈烈	-10624
▁理	-10625
半夜	-10626
引力	-10627
拥吻	-10628
敬拜	-10629
某人	-10630
每晚	-10631
算了	-10632
躲开	-10633
透露	-10634
邀请	-10635
▁愉快	-10636
▁早知	-10637
▁柔柔	-10638
▁沧海	-10639
▁看过	-10640
▁轻声	-10641
▁风起	-10642
回头看	-10643
在雨中	-10644
心相印	-10645
的大地	-10646
▁不愿意	-10647
▁女人的	-10648
▁长长的	-10649
▁飞呀飞	-10650
我的一切	-10651
▁爱情不是	-10652
▁扭	-10653
▁贝	-10654
一行	-10655
不幸	-10656
主人	-10657
云霞	-10658
分隔	-10659
变心	-10660
大厦	-10661
就没	-10662
巷口	-10663
我走	-10664
打着	-10665
无份	-10666
星移	-10667
本领	-10668
胸襟	-10669
裙摆	-10670
▁埋葬	-10671
▁把那	-10672
▁旁人	-10673
▁浪花	-10674
▁苍天	-10675
▁高山	-10676
在心田	-10677
在脑海	-10678
山越岭	-10679
把幸福	-10680
狠心的	-10681
而过的	-10682
都不够	-10683
▁woo	-10684
▁不可能	-10685
▁我就要	-10686
寻寻觅觅	-10687
没有尽头	-10688
铭心刻骨	-10689
▁永远永远	-10690
▁盘	-10691
下起	-10692
不提	-10693
不胜	-10694
内容	-10695
化做	-10696
啊飘	-10697
大概	-10698
彩色	-10699
心如	-10700
意料	-10701
接触	-10702
旧事	-10703
最怕	-10704
流出	-10705
流走	-10706
清清	-10707
滴落	-10708
缝隙	-10709
荒漠	-10710
边界	-10711
那就	-10712
▁一口	-10713
▁抱歉	-10714
▁朵朵	-10715
▁谱写	-10716
会怎样	-10717
你不再	-10718
在蓝天	-10719
太天真	-10720
抱紧我	-10721
时光里	-10722
的兄弟	-10723
的风吹	-10724
你的脚步	-10725
昙花一现	-10726
▁希望你能	-10727
▁未来的路	-10728
▁凄	-10729
▁携	-10730
▁诚	-10731
一番	-10732
不解	-10733
伫立	-10734
你看	-10735
别了	-10736
后果	-10737
大大	-10738
宽恕	-10739
惊讶	-10740
照着	-10741
留低	-10742
的气	-10743
碎的	-10744
结成	-10745
老家	-10746
脚尖	-10747
苍凉	-10748
荒废	-10749
路灯	-10750
迷醉	-10751
道歉	-10752
酒吧	-10753
靠着	-10754
飘忽	-10755
▁哭过	-10756
▁如梦	-10757
▁念念	-10758
▁想说	-10759
▁爱若	-10760
▁绿水	-10761
▁飞越	-10762
恭喜你	-10763
犯下的	-10764
风中的	-10765
▁从今后	-10766
▁就不要	-10767
▁爱与恨	-10768
风花雪月	-10769
▁LOVE	-10770
▁小心翼翼	-10771
▁我的梦想	-10772
▁珠	-10773
下午	-10774
个个	-10775
双脚	-10776
在云	-10777
多说	-10778
安抚	-10779
宝藏	-10780
忙着	-10781
捧着	-10782
早晚	-10783
是梦	-10784
泼墨	-10785
熟睡	-10786
用我	-10787
相陪	-10788
离家	-10789
第三	-10790
肝肠	-10791
花火	-10792
那次	-10793
陌上	-10794
雨下	-10795
雨露	-10796
顽固	-10797
▁几番	-10798
▁受了	-10799
▁天高	-10800
▁好吧	-10801
▁我走	-10802
▁泪眼	-10803
▁照耀	-10804
▁蔚蓝	-10805
▁说话	-10806
▁鱼儿	-10807
喜洋洋	-10808
太在意	-10809
已没有	-10810
时每刻	-10811
的方式	-10812
的道路	-10813
算了吧	-10814
能让你	-10815
过一生	-10816
这结果	-10817
那首歌	-10818
都不曾	-10819
▁何时能	-10820
▁新时代	-10821
我的故乡	-10822
我的生活	-10823
手牵着手	-10824
生日快乐	-10825
▁你我之间	-10826
▁因为爱你	-10827
▁每个人都有	-10828
▁度	-10829
▁网	-10830
一趟	-10831
万重	-10832
久久	-10833
仍旧	-10834
刻下	-10835
哀怨	-10836
帅气	-10837
忘我	-10838
恶魔	-10839
愧疚	-10840
有苦	-10841
末路	-10842
滑过	-10843
的多	-10844
的戏	-10845
的线	-10846
繁忙	-10847
认为	-10848
越想	-10849
雨雪	-10850
▁与其	-10851
▁低头	-10852
▁反而	-10853
▁抹去	-10854
▁精彩	-10855
▁长长	-10856
怀念你	-10857
找个人	-10858
濡以沫	-10859
的旅行	-10860
记不起	-10861
跳起来	-10862
面对面	-10863
▁对我说	-10864
▁远方的	-10865
▁长大后	-10866
▁难道我	-10867
兜兜转转	-10868
在我梦里	-10869
我的梦想	-10870
把你挽留	-10871
ic	-10872
▁创	-10873
▁搭	-10874
▁撞	-10875
▁欧	-10876
▁秦	-10877
▁阳	-10878
一季	-10879
不配	-10880
之地	-10881
也可	-10882
他会	-10883
伤怀	-10884
受苦	-10885
叹气	-10886
困境	-10887
子之	-10888
尽兴	-10889
山谷	-10890
庭院	-10891
恶梦	-10892
抱住	-10893
放大	-10894
灾难	-10895
玲珑	-10896
登场	-10897
的书	-10898
的画	-10899
破灭	-10900
磨难	-10901
红花	-10902
追着	-10903
预告	-10904
飘远	-10905
▁为着	-10906
▁他是	-10907
▁想哭	-10908
▁拜拜	-10909
付出了	-10910
再爱你	-10911
厌倦了	-10912
我的小	-10913
漫漫长	-10914
留住你	-10915
的心扉	-10916
▁天真的	-10917
▁让所有	-10918
一错再错	-10919
不一样的	-10920
你的呼吸	-10921
迷失方向	-10922
▁你对我的	-10923
▁在你身边	-10924
▁搞	-10925
一挥	-10926
三更	-10927
不讲	-10928
也别	-10929
事实	-10930
儿子	-10931
其事	-10932
几何	-10933
另外	-10934
得了	-10935
思暮	-10936
疼爱	-10937
窗边	-10938
艳丽	-10939
赴汤	-10940
遮挡	-10941
随缘	-10942
ppy	-10943
▁任你	-10944
▁十指	-10945
▁委屈	-10946
▁抚摸	-10947
▁火火	-10948
你没有	-10949
带着我	-10950
影随形	-10951
无目的	-10952
的晚上	-10953
的英雄	-10954
观世音	-10955
让时间	-10956
这一段	-10957
里没有	-10958
▁你不用	-10959
▁我就会	-10960
▁转过身	-10961
你的拥抱	-10962
▁如果你真的	-10963
▁兰	-10964
▁跨	-10965
不准	-10966
专注	-10967
两眼	-10968
也就	-10969
共鸣	-10970
千金	-10971
头琴	-10972
娱乐	-10973
嫦娥	-10974
心怀	-10975
泪珠	-10976
狂妄	-10977
蹈火	-10978
车站	-10979
都好	-10980
重担	-10981
难逃	-10982
飞吧	-10983
▁仍是	-10984
▁停留	-10985
▁十二	-10986
▁回荡	-10987
▁才是	-10988
▁甜言	-10989
▁祝愿	-10990
只是你	-10991
思念你	-10992
是我最	-10993
疯狂的	-10994
过的伤	-10995
这个家	-10996
避风港	-10997
都那么	-10998
▁午夜的	-10999
你给我的	-11000
我的时候	-11001
▁因为我们	-11002
我的世界里	-11003
▁我最亲爱的	-11004
BY	-11005
▁端	-11006
两心	-11007
作弄	-11008
停住	-11009
占领	-11010
大树	-11011
太好	-11012
奶酒	-11013
孑然	-11014
所想	-11015
旧情	-11016
爆发	-11017
的发	-11018
细心	-11019
脱离	-11020
虚构	-11021
谷底	-11022
身的	-11023
鼻子	-11024
▁坠落	-11025
▁左右	-11026
▁微微	-11027
▁是对	-11028
▁是爱	-11029
▁痛快	-11030
什么样	-11031
期而遇	-11032
比谁都	-11033
痴情的	-11034
的一生	-11035
的年华	-11036
的风筝	-11037
艳阳天	-11038
▁无数次	-11039
▁还是要	-11040
付出所有	-11041
全都是你	-11042
在我耳边	-11043
▁漫漫长夜	-11044
回不到从前	-11045
陪在你身旁	-11046
▁j	-11047
▁弄	-11048
▁朱	-11049
▁渐	-11050
▁虎	-11051
一问	-11052
不为	-11053
之花	-11054
事儿	-11055
及时	-11056
台北	-11057
喝下	-11058
城墙	-11059
妖娆	-11060
对望	-11061
屹立	-11062
带去	-11063
拉近	-11064
有限	-11065
有风	-11066
相惜	-11067
终老	-11068
羔羊	-11069
良辰	-11070
高照	-11071
▁为情	-11072
▁古老	-11073
▁就似	-11074
▁恍然	-11075
▁海阔	-11076
▁缤纷	-11077
▁风筝	-11078
一个好	-11079
和自己	-11080
在流淌	-11081
大中华	-11082
想不到	-11083
我不知	-11084
我心窝	-11085
没办法	-11086
漫天的	-11087
▁为何我	-11088
▁像一个	-11089
▁快乐的	-11090
▁我走在	-11091
▁睁开眼	-11092
一道彩虹	-11093
再也没有	-11094
感觉不到	-11095
▁我的生命	-11096
▁压	-11097
▁取	-11098
▁毛	-11099
危难	-11100
如海	-11101
守侯	-11102
封存	-11103
小路	-11104
平息	-11105
惯了	-11106
无赖	-11107
清泉	-11108
牛郎	-11109
绿叶	-11110
街口	-11111
转角	-11112
透过	-11113
遐想	-11114
ain	-11115
▁了解	-11116
▁伸手	-11117
▁初恋	-11118
▁我做	-11119
▁承载	-11120
▁斜阳	-11121
▁爱恋	-11122
▁装作	-11123
▁财神	-11124
不让我	-11125
会让你	-11126
到天涯	-11127
因为我	-11128
心连心	-11129
我不怕	-11130
的存在	-11131
还会有	-11132
这杯酒	-11133
进你的	-11134
▁你微笑	-11135
▁只需要	-11136
▁回忆里	-11137
▁抓不住	-11138
▁放开手	-11139
一首情歌	-11140
你的样子	-11141
你的爱情	-11142
▁Come	-11143
▁你是我最	-11144
▁沧海桑田	-11145
▁汗	-11146
乏味	-11147
云天	-11148
何去	-11149
封锁	-11150
很少	-11151
戈壁	-11152
昏黄	-11153
星斗	-11154
朗朗	-11155
来覆	-11156
渺茫	-11157
真真	-11158
睫毛	-11159
而活	-11160
耍赖	-11161
规矩	-11162
还留	-11163
迷乱	-11164
迷藏	-11165
长河	-11166
▁快要	-11167
▁沿路	-11168
▁流年	-11169
▁疲倦	-11170
▁迎来	-11171
▁长江	-11172
一丝丝	-11173
一起看	-11174
上天的	-11175
不爱了	-11176
再给我	-11177
只是我	-11178
女人的	-11179
并着肩	-11180
着眼睛	-11181
ever	-11182
▁看一看	-11183
我不知道	-11184
▁为了梦想	-11185
▁多么希望	-11186
牵着我的手	-11187
主动	-11188
了眼	-11189
依耶	-11190
刻在	-11191
功课	-11192
口中	-11193
向左	-11194
奏响	-11195
年月	-11196
怎去	-11197
探戈	-11198
洒下	-11199
浩荡	-11200
疫情	-11201
走入	-11202
远飞	-11203
钢铁	-11204
▁凡事	-11205
▁心酸	-11206
▁我猜	-11207
▁白衣	-11208
▁真想	-11209
你一个	-11210
再回到	-11211
剩下的	-11212
忙碌碌	-11213
是你我	-11214
流过的	-11215
的情谊	-11216
迷失在	-11217
▁Let	-11218
▁一起去	-11219
▁这段情	-11220
▁阳光下	-11221
你的影子	-11222
着我们的	-11223
▁天荒地老	-11224
▁爱上了你	-11225
se	-11226
▁呵	-11227
▁索	-11228
▁驱	-11229
不屈	-11230
不睬	-11231
丢在	-11232
何年	-11233
利亚	-11234
失忆	-11235
既往	-11236
的空	-11237
看似	-11238
设计	-11239
轻言	-11240
那朵	-11241
长街	-11242
青蛙	-11243
▁何妨	-11244
▁大概	-11245
▁摇曳	-11246
▁无所	-11247
▁这条	-11248
▁陶醉	-11249
其自然	-11250
多年的	-11251
的谎言	-11252
▁为自己	-11253
▁就在那	-11254
▁拥有你	-11255
▁陪伴我	-11256
在我眼前	-11257
▁想你想你	-11258
▁goodbye	-11259
▁倚	-11260
▁影	-11261
▁悬	-11262
▁禁	-11263
一早	-11264
一角	-11265
上海	-11266
不枉	-11267
冷冰	-11268
喳喳	-11269
很快	-11270
心也	-11271
思恋	-11272
恩典	-11273
拜年	-11274
无阻	-11275
没错	-11276
渺渺	-11277
的秋	-11278
经已	-11279
缺口	-11280
里头	-11281
隆隆	-11282
风格	-11283
骑着	-11284
▁十里	-11285
▁大海	-11286
▁更加	-11287
▁杨柳	-11288
才是最	-11289
着你我	-11290
落下的	-11291
baby	-11292
▁下一个	-11293
▁不要问	-11294
▁从此后	-11295
▁只有我	-11296
▁还不如	-11297
▁还是会	-11298
你的气息	-11299
最美好的	-11300
爱的力量	-11301
▁哈利路亚	-11302
▁海枯石烂	-11303
▁你是否还记得	-11304
▁摸	-11305
▁枕	-11306
▁沾	-11307
▁疯	-11308
▁赏	-11309
一刹	-11310
加快	-11311
多深	-11312
天光	-11313
如我	-11314
如故	-11315
某某	-11316
溶化	-11317
爱侣	-11318
痛到	-11319
舒畅	-11320
蓝图	-11321
难言	-11322
雨夜	-11323
马路	-11324
▁一再	-11325
▁品尝	-11326
▁庆幸	-11327
▁把它	-11328
▁热爱	-11329
▁玻璃	-11330
你温柔	-11331
前月下	-11332
只要你	-11333
我不要	-11334
有多好	-11335
灵魂的	-11336
的灯火	-11337
的眷恋	-11338
▁总有人	-11339
年少轻狂	-11340
▁积	-11341
一旦	-11342
出这	-11343
力竭	-11344
夜半	-11345
学校	-11346
家中	-11347
很累	-11348
时无	-11349
暗自	-11350
稀罕	-11351
运动	-11352
▁头发	-11353
▁好运	-11354
▁战友	-11355
▁星期	-11356
▁策马	-11357
▁风雪	-11358
去忘记	-11359
想一想	-11360
换不回	-11361
的光阴	-11362
的机会	-11363
的爱意	-11364
走一走	-11365
跟你走	-11366
那一年	-11367
▁别说你	-11368
▁最爱的	-11369
▁给你的	-11370
▁许下的	-11371
▁请你别	-11372
▁你是否会	-11373
▁原来爱情	-11374
▁你在我心里	-11375
▁掩	-11376
全心	-11377
剑影	-11378
发烧	-11379
叽叽	-11380
喘息	-11381
如梭	-11382
孔雀	-11383
年岁	-11384
心肝	-11385
想她	-11386
款款	-11387
涟涟	-11388
烽烟	-11389
耕耘	-11390
苦恋	-11391
责备	-11392
贪图	-11393
进步	-11394
ake	-11395
▁冰雪	-11396
▁出发	-11397
▁和平	-11398
▁斑驳	-11399
▁越想	-11400
▁遍地	-11401
不下来	-11402
为何要	-11403
受了伤	-11404
呵护你	-11405
我一直	-11406
都不再	-11407
▁我的小	-11408
▁手中的	-11409
▁谁没有	-11410
别无所求	-11411
▁分分秒秒	-11412
▁我们的心	-11413
▁唇	-11414
充斥	-11415
去等	-11416
又长	-11417
回回	-11418
在他	-11419
如雪	-11420
带领	-11421
握手	-11422
翻阅	-11423
镜中	-11424
鸽子	-11425
▁围绕	-11426
▁学习	-11427
▁就有	-11428
▁我与	-11429
▁白色	-11430
在胸口	-11431
幸福和	-11432
当年的	-11433
才是我	-11434
是否能	-11435
用生命	-11436
相信爱	-11437
▁人人都	-11438
▁再回首	-11439
▁留下我	-11440
▁秋天的	-11441
▁让青春	-11442
▁悲欢离合	-11443
▁花开花谢	-11444
▁品	-11445
九州	-11446
二人	-11447
优美	-11448
呈现	-11449
太重	-11450
奉陪	-11451
它会	-11452
宝贵	-11453
年头	-11454
廉价	-11455
总被	-11456
我该	-11457
早上	-11458
木马	-11459
沙漏	-11460
滋养	-11461
灭了	-11462
爱又	-11463
移动	-11464
自语	-11465
话儿	-11466
读书	-11467
错对	-11468
香的	-11469
▁不甘	-11470
▁人心	-11471
▁何日	-11472
▁勇气	-11473
▁听听	-11474
▁怀着	-11475
▁憧憬	-11476
▁躺在	-11477
▁门前	-11478
你不懂	-11479
在天上	-11480
失去的	-11481
的夜色	-11482
给了谁	-11483
▁大不了	-11484
▁是那么	-11485
▁相信我	-11486
▁谁愿意	-11487
一起走过	-11488
我的青春	-11489
▁就这样吧	-11490
▁亲爱的亲爱的	-11491
▁养	-11492
▁吵	-11493
▁恭	-11494
▁淋	-11495
▁病	-11496
▁逼	-11497
不破	-11498
与愿	-11499
人已	-11500
但愿	-11501
但是	-11502
右边	-11503
唱响	-11504
因我	-11505
声线	-11506
夏日	-11507
底线	-11508
我养	-11509
无理	-11510
映红	-11511
本是	-11512
百般	-11513
笔墨	-11514
篱笆	-11515
续写	-11516
虚空	-11517
▁又再	-11518
▁固执	-11519
▁心动	-11520
▁日后	-11521
▁旧日	-11522
▁武汉	-11523
▁泛黄	-11524
▁都能	-11525
你在哪	-11526
多一次	-11527
大声唱	-11528
梦见你	-11529
浮现在	-11530
这世间	-11531
▁不变的	-11532
▁从来没	-11533
▁你终于	-11534
▁只想你	-11535
▁我要去	-11536
你的身旁	-11537
无声无息	-11538
走到尽头	-11539
▁我的生活	-11540
▁偶	-11541
▁奇	-11542
▁抬	-11543
▁羞	-11544
为伴	-11545
交出	-11546
倩影	-11547
出个	-11548
地北	-11549
当下	-11550
抽屉	-11551
最痛	-11552
洗去	-11553
流干	-11554
田园	-11555
电脑	-11556
相许	-11557
维护	-11558
蠢蠢	-11559
裂缝	-11560
这生	-11561
阻隔	-11562
际遇	-11563
▁想问	-11564
▁满怀	-11565
不得不	-11566
付出的	-11567
你为我	-11568
在昨天	-11569
好自己	-11570
曾相识	-11571
没有用	-11572
的烦恼	-11573
的脸颊	-11574
▁不得不	-11575
▁我还要	-11576
▁每一步	-11577
▁真心的	-11578
乘风破浪	-11579
紧紧拥抱	-11580
错了什么	-11581
▁不要害怕	-11582
▁曾经以为	-11583
▁准	-11584
▁招	-11585
▁钟	-11586
一大	-11587
与心	-11588
两颗	-11589
你再	-11590
历历	-11591
去哪	-11592
另一	-11593
多的	-11594
如一	-11595
密码	-11596
幅画	-11597
心门	-11598
悲痛	-11599
想得	-11600
愁绪	-11601
抽烟	-11602
无价	-11603
无涯	-11604
暮色	-11605
桥头	-11606
歌词	-11607
流着	-11608
疯掉	-11609
芳心	-11610
蓬勃	-11611
要做	-11612
记挂	-11613
说是	-11614
说服	-11615
谁是	-11616
转机	-11617
这边	-11618
马蹄	-11619
ong	-11620
▁It	-11621
▁从小	-11622
▁影子	-11623
▁我哭	-11624
▁相知	-11625
▁这晚	-11626
尽情的	-11627
绝不会	-11628
陷越深	-11629
▁再大的	-11630
▁想不到	-11631
▁我感觉	-11632
▁曾以为	-11633
哒哒哒哒	-11634
总有一天	-11635
▁为什么我	-11636
▁你能不能	-11637
▁时光匆匆	-11638
▁我不是你的	-11639
▁普	-11640
▁盛	-11641
▁绣	-11642
保存	-11643
叛逆	-11644
只怪	-11645
对她	-11646
小溪	-11647
忘情	-11648
念想	-11649
想逃	-11650
深沉	-11651
满眼	-11652
献上	-11653
骤雨	-11654
▁散落	-11655
▁聪明	-11656
▁这片	-11657
▁风声	-11658
你曾经	-11659
却依然	-11660
又回到	-11661
我们要	-11662
戒不掉	-11663
找借口	-11664
是谁在	-11665
有多大	-11666
的那样	-11667
见过你	-11668
▁朋友们	-11669
从此不再	-11670
把我的心	-11671
赴汤蹈火	-11672
▁我的幸福	-11673
▁爱上你我	-11674
▁咬	-11675
▁踢	-11676
以来	-11677
听的	-11678
地下	-11679
尽是	-11680
念旧	-11681
搀扶	-11682
时尚	-11683
木偶	-11684
桂花	-11685
艺术	-11686
认错	-11687
通往	-11688
音机	-11689
飞跃	-11690
all	-11691
▁信念	-11692
▁徒留	-11693
▁情难	-11694
▁纠缠	-11695
▁花谢	-11696
▁长路	-11697
在流浪	-11698
在那个	-11699
如刀割	-11700
对我好	-11701
已无法	-11702
暖暖的	-11703
每一刻	-11704
的冲动	-11705
的奇迹	-11706
的流星	-11707
看见了	-11708
着什么	-11709
▁冷冷的	-11710
▁学会了	-11711
▁曾经我	-11712
▁若不是	-11713
与你相见	-11714
总是那么	-11715
无处可逃	-11716
▁什么样的	-11717
▁如果你是	-11718
▁我要和你	-11719
▁相信自己	-11720
遥远的地方	-11721
▁嘟	-11722
▁宛	-11723
▁麦	-11724
万家	-11725
乘风	-11726
人物	-11727
你这	-11728
呀吹	-11729
地走	-11730
如山	-11731
底下	-11732
张脸	-11733
挑选	-11734
撤退	-11735
日期	-11736
牧歌	-11737
的祸	-11738
磨练	-11739
老妈	-11740
过几	-11741
送来	-11742
那首	-11743
醉意	-11744
▁万水	-11745
▁不分	-11746
▁他会	-11747
▁又怕	-11748
▁埋藏	-11749
▁小河	-11750
▁我亦	-11751
▁挥洒	-11752
▁无关	-11753
▁燕子	-11754
在每个	-11755
天动地	-11756
想我吗	-11757
湖四海	-11758
犯了错	-11759
的星空	-11760
的歌儿	-11761
能和你	-11762
▁多年后	-11763
▁妈妈呀	-11764
▁我记得	-11765
▁我们已经	-11766
▁哗	-11767
▁煮	-11768
▁睁	-11769
▁脑	-11770
不惜	-11771
不许	-11772
人和	-11773
前往	-11774
另类	-11775
噩梦	-11776
封闭	-11777
延伸	-11778
弟弟	-11779
懂事	-11780
所在	-11781
扑朔	-11782
打扮	-11783
收到	-11784
满头	-11785
独钟	-11786
神伤	-11787
缭绕	-11788
花季	-11789
虚情	-11790
证实	-11791
▁从头	-11792
▁滋润	-11793
▁风沙	-11794
不了的	-11795
了一半	-11796
像一个	-11797
带着你	-11798
我不该	-11799
无止境	-11800
是一条	-11801
空气中	-11802
这一回	-11803
那个你	-11804
▁你还会	-11805
▁到头来	-11806
▁恭喜你	-11807
▁爱过了	-11808
▁离开了	-11809
看着你的	-11810
▁感谢有你	-11811
▁跌跌撞撞	-11812
▁内	-11813
▁咋	-11814
▁土	-11815
上去	-11816
不屑	-11817
乐观	-11818
似锦	-11819
侵袭	-11820
却被	-11821
和泪	-11822
在变	-11823
增添	-11824
大门	-11825
念着	-11826
有千	-11827
欠缺	-11828
油盐	-11829
海上	-11830
的血	-11831
老歌	-11832
赋予	-11833
▁左手	-11834
▁收拾	-11835
▁某个	-11836
▁沧桑	-11837
▁迷茫	-11838
去改变	-11839
唱不完	-11840
回来吧	-11841
注定了	-11842
爱情里	-11843
的幻想	-11844
的怀抱	-11845
看不透	-11846
跟你说	-11847
▁却让我	-11848
▁只想要	-11849
春秋冬夏	-11850
的爱着你	-11851
这段感情	-11852
鼓起勇气	-11853
▁赛	-11854
不求	-11855
世代	-11856
九天	-11857
决绝	-11858
十七	-11859
厚厚	-11860
呐呐	-11861
咒语	-11862
噜噜	-11863
密布	-11864
屏幕	-11865
忧虑	-11866
总想	-11867
恋上	-11868
恐慌	-11869
无依	-11870
毕业	-11871
浓情	-11872
煳涂	-11873
画出	-11874
细腻	-11875
达拉	-11876
避开	-11877
释迦	-11878
预备	-11879
▁不准	-11880
▁不理	-11881
▁不由	-11882
▁仍旧	-11883
▁你和	-11884
▁向你	-11885
▁好比	-11886
▁容易	-11887
▁幽幽	-11888
▁我笑	-11889
▁跨过	-11890
乐开怀	-11891
在寂寞	-11892
无数个	-11893
爱爱爱	-11894
的人都	-11895
的伤害	-11896
的心中	-11897
的日记	-11898
需要我	-11899
▁一开始	-11900
▁剪不断	-11901
▁在没有	-11902
▁在爱的	-11903
▁岁月的	-11904
▁走不出	-11905
一笑而过	-11906
从来不曾	-11907
我们相遇	-11908
歇斯底里	-11909
的一瞬间	-11910
▁你知道吗	-11911
▁我的家乡	-11912
▁孝	-11913
一篇	-11914
不看	-11915
仙境	-11916
传唱	-11917
光影	-11918
围墙	-11919
多变	-11920
情网	-11921
擦身	-11922
教堂	-11923
明灯	-11924
浅笑	-11925
眉目	-11926
茶香	-11927
过着	-11928
连天	-11929
送上	-11930
风在	-11931
▁we	-11932
▁年华	-11933
▁想把	-11934
▁拿起	-11935
▁盛世	-11936
▁花花	-11937
▁高原	-11938
多快乐	-11939
的呼唤	-11940
的爱你	-11941
▁不愿再	-11942
▁我们有	-11943
▁或许你	-11944
一次机会	-11945
太多太多	-11946
独自承受	-11947
▁就是这样	-11948
▁鸟	-11949
云儿	-11950
交流	-11951
企图	-11952
优秀	-11953
入喉	-11954
再远	-11955
去猜	-11956
吹响	-11957
大吉	-11958
失魂	-11959
捉紧	-11960
摊开	-11961
是空	-11962
月里	-11963
欢声	-11964
燃尽	-11965
牵起	-11966
疏远	-11967
纷争	-11968
话我	-11969
足以	-11970
迎面	-11971
里我	-11972
闯进	-11973
露珠	-11974
▁代替	-11975
▁你再	-11976
▁奉献	-11977
▁梦幻	-11978
▁纪念	-11979
▁芬芳	-11980
▁茫然	-11981
▁银河	-11982
一阵阵	-11983
了很多	-11984
你不曾	-11985
六十五	-11986
在闪烁	-11987
在飞翔	-11988
来覆去	-11989
桥流水	-11990
的秋天	-11991
融化了	-11992
轻轻唱	-11993
那么远	-11994
那时候	-11995
▁人海中	-11996
▁动人的	-11997
▁好朋友	-11998
▁抱着你	-11999
▁谁又会	-12000
▁难道这	-12001
▁我们永远	-12002
▁每分每秒	-12003
▁请你不要再	-12004
▁壮	-12005
一代	-12006
人说	-12007
何妨	-12008
作为	-12009
别哭	-12010
只愿	-12011
如昨	-12012
怜惜	-12013
棒棒	-12014
没钱	-12015
红叶	-12016
缘去	-12017
躲进	-12018
重播	-12019
锁住	-12020
驻足	-12021
▁Na	-12022
▁na	-12023
▁做你	-12024
▁可笑	-12025
▁多久	-12026
▁已是	-12027
▁我便	-12028
▁神秘	-12029
▁等候	-12030
▁被爱	-12031
▁雨打	-12032
与愿违	-12033
了时间	-12034
回不来	-12035
是一只	-12036
比不上	-12037
爱下去	-12038
的渴望	-12039
迷了路	-12040
▁不再是	-12041
▁从今天	-12042
▁就可以	-12043
▁深夜里	-12044
▁火辣辣	-12045
▁要不要	-12046
▁这是个	-12047
▁金色的	-12048
orever	-12049
▁亚	-12050
▁够	-12051
▁萨	-12052
不退	-12053
中人	-12054
些许	-12055
再看	-12056
多姿	-12057
尽快	-12058
年龄	-12059
微妙	-12060
情书	-12061
所愿	-12062
暗香	-12063
枝桠	-12064
某些	-12065
桃源	-12066
毛衣	-12067
永生	-12068
治疗	-12069
流芳	-12070
状态	-12071
裂痕	-12072
视野	-12073
触动	-12074
这爱	-12075
▁一千	-12076
▁心也	-12077
▁忘却	-12078
▁拨开	-12079
▁第二	-12080
▁美梦	-12081
▁这刻	-12082
▁麻木	-12083
不难过	-12084
另一边	-12085
哪里来	-12086
天空的	-12087
我只能	-12088
我是谁	-12089
捧在手	-12090
更坚强	-12091
沉重的	-12092
的不是	-12093
的消息	-12094
的美梦	-12095
▁却忘了	-12096
▁听你说	-12097
▁如今你	-12098
留给我的	-12099
▁灯火阑珊	-12100
▁请你告诉我	-12101
th	-12102
▁戴	-12103
▁言	-12104
▁间	-12105
下落	-12106
亿万	-12107
农民	-12108
化蝶	-12109
在此	-12110
城外	-12111
嫣然	-12112
怒吼	-12113
朝朝	-12114
某日	-12115
柴米	-12116
欢颜	-12117
消融	-12118
献给	-12119
节日	-12120
觉悟	-12121
说不	-12122
音讯	-12123
顽皮	-12124
▁不留	-12125
▁哪有	-12126
▁唿吸	-12127
▁它们	-12128
▁描绘	-12129
▁视线	-12130
▁谁料	-12131
不完美	-12132
儿时的	-12133
分之一	-12134
平凡的	-12135
快乐吗	-12136
无人能	-12137
的相思	-12138
的蝴蝶	-12139
的霓虹	-12140
腔热血	-12141
许多年	-12142
▁你与我	-12143
▁回来吧	-12144
▁有你我	-12145
▁没人能	-12146
▁这份情	-12147
你就是我	-12148
各奔东西	-12149
天各一方	-12150
我的双眼	-12151
藏在心底	-12152
▁你的一切	-12153
▁勇往直前	-12154
▁我是不是	-12155
▁青山绿水	-12156
▁一年又一年	-12157
▁在我的心里	-12158
▁吉	-12159
▁吸	-12160
作用	-12161
加上	-12162
半天	-12163
卷起	-12164
女友	-12165
字句	-12166
安睡	-12167
座山	-12168
悲凉	-12169
扁舟	-12170
歌里	-12171
流长	-12172
温习	-12173
看来	-12174
着小	-12175
筑起	-12176
青苔	-12177
▁沉迷	-12178
▁热恋	-12179
▁眷恋	-12180
▁胭脂	-12181
一份爱	-12182
一遍遍	-12183
不要太	-12184
不记得	-12185
到今天	-12186
更快乐	-12187
要离开	-12188
还给我	-12189
▁一定会	-12190
▁别人的	-12191
▁让快乐	-12192
一厢情愿	-12193
孩子一样	-12194
没有终点	-12195
海市蜃楼	-12196
这种感觉	-12197
▁在每一个	-12198
▁家家户户	-12199
▁情不自禁	-12200
▁我是多么	-12201
▁你是我一生	-12202
一击	-12203
两三	-12204
千帆	-12205
华年	-12206
向天	-12207
哎哎	-12208
地铁	-12209
坏了	-12210
增加	-12211
多多	-12212
实的	-12213
斗志	-12214
桌上	-12215
水面	-12216
流云	-12217
浮夸	-12218
疲累	-12219
而退	-12220
背景	-12221
自已	-12222
苦笑	-12223
萝卜	-12224
赠我	-12225
钞票	-12226
高唱	-12227
魔咒	-12228
鼓舞	-12229
▁一刻	-12230
▁一如	-12231
▁十八	-12232
▁即便	-12233
▁如你	-12234
▁浮云	-12235
▁痛过	-12236
也愿意	-12237
二三四	-12238
你知道	-12239
得到了	-12240
我们还	-12241
手拉手	-12242
春风吹	-12243
浮沉沉	-12244
甜美的	-12245
的想法	-12246
辛苦了	-12247
都为你	-12248
都变得	-12249
▁也曾经	-12250
▁却依然	-12251
▁嘿嘿嘿	-12252
▁在我心	-12253
▁爱让我	-12254
▁至少我	-12255
从前一样	-12256
因为有你	-12257
好好爱你	-12258
孤孤单单	-12259
无悔无怨	-12260
真的真的	-12261
陪我一起	-12262
▁with	-12263
▁人生路上	-12264
▁地老天荒	-12265
▁就让时间	-12266
▁永远不会	-12267
▁勇	-12268
▁浑	-12269
▁英	-12270
▁薄	-12271
乱想	-12272
冷雨	-12273
尽量	-12274
屋里	-12275
心海	-12276
慈爱	-12277
戒掉	-12278
探险	-12279
接着	-12280
月牙	-12281
本色	-12282
果实	-12283
湖边	-12284
王国	-12285
生了	-12286
短信	-12287
肚子	-12288
致命	-12289
过那	-12290
陈旧	-12291
▁却也	-12292
▁去年	-12293
▁同心	-12294
▁圣洁	-12295
▁大步	-12296
▁心若	-12297
▁故意	-12298
▁时时	-12299
▁海风	-12300
▁满满	-12301
▁若能	-12302
你好吗	-12303
别让我	-12304
得太快	-12305
把你来	-12306
把你的	-12307
时无刻	-12308
的云朵	-12309
的花香	-12310
的轮廓	-12311
终究会	-12312
▁一声声	-12313
▁准备好	-12314
▁听我说	-12315
▁我们用	-12316
▁白色的	-12317
万家灯火	-12318
你的心跳	-12319
▁为何还要	-12320
▁兄弟姐妹	-12321
▁怎样才能	-12322
▁情到深处	-12323
▁我也不想	-12324
▁谢谢你的	-12325
▁跟我一起	-12326
▁风雨过后	-12327
▁参	-12328
▁食	-12329
乡音	-12330
出错	-12331
古怪	-12332
句号	-12333
只在	-12334
吃苦	-12335
响亮	-12336
回旋	-12337
境界	-12338
小伙	-12339
山海	-12340
年某	-12341
往哪	-12342
摇头	-12343
百里	-12344
知识	-12345
袭来	-12346
说得	-12347
起缘	-12348
越远	-12349
踏遍	-12350
遮风	-12351
野草	-12352
黑洞	-12353
▁YE	-12354
▁不舍	-12355
▁今世	-12356
▁只需	-12357
▁可有	-12358
▁算了	-12359
的只是	-12360
笑着说	-12361
陪你走	-12362
面对你	-12363
ream	-12364
▁不明白	-12365
▁不是你	-12366
▁向前走	-12367
▁爱你是	-12368
▁绿色的	-12369
▁转眼间	-12370
住你的手	-12371
何时才能	-12372
变了模样	-12373
在我身上	-12374
是是非非	-12375
▁前方的路	-12376
▁没有任何	-12377
许下的诺言	-12378
▁编	-12379
了她	-12380
云海	-12381
亲爱	-12382
作痛	-12383
倒下	-12384
农村	-12385
刺骨	-12386
多大	-12387
多点	-12388
天分	-12389
就变	-12390
居然	-12391
已变	-12392
志成	-12393
拿起	-12394
挚爱	-12395
改写	-12396
日梦	-12397
旧爱	-12398
气象	-12399
渴求	-12400
演技	-12401
焦点	-12402
相扣	-12403
睡吧	-12404
秋叶	-12405
老鼠	-12406
配角	-12407
难熬	-12408
黑的	-12409
▁St	-12410
▁奋斗	-12411
▁无心	-12412
▁时而	-12413
▁终点	-12414
▁赞美	-12415
两茫茫	-12416
了一地	-12417
你让我	-12418
向前方	-12419
复一日	-12420
多美好	-12421
戈铁马	-12422
是否会	-12423
被现实	-12424
▁一起看	-12425
▁悄悄地	-12426
不再回头	-12427
相依相伴	-12428
说过的话	-12429
▁will	-12430
▁快快乐乐	-12431
▁我们彼此	-12432
▁远方的你	-12433
美好的回忆	-12434
▁你可知道我	-12435
▁有你在身边	-12436
▁形	-12437
▁莲	-12438
一等	-12439
下班	-12440
不快	-12441
不惧	-12442
何人	-12443
其他	-12444
叮嘱	-12445
哇哇	-12446
在天	-12447
慵懒	-12448
振作	-12449
救我	-12450
无药	-12451
有日	-12452
梦游	-12453
爱错	-12454
的口	-12455
竹马	-12456
美呀	-12457
胆小	-12458
迟迟	-12459
难耐	-12460
靠在	-12461
颠沛	-12462
▁一抹	-12463
▁呼唤	-12464
▁因此	-12465
▁圣诞	-12466
▁拥挤	-12467
▁说我	-12468
▁闪闪	-12469
为你哭	-12470
人海中	-12471
唱的歌	-12472
喝一杯	-12473
很美丽	-12474
我只想	-12475
放弃你	-12476
是爱的	-12477
的对白	-12478
的雨滴	-12479
随着风	-12480
▁一遍遍	-12481
▁月光下	-12482
▁谁不是	-12483
与你一起	-12484
潮起潮落	-12485
谁对谁错	-12486
随波逐流	-12487
▁一路走来	-12488
▁只要我们	-12489
▁命中注定	-12490
▁我会给你	-12491
▁终于明白	-12492
▁登	-12493
仲夏	-12494
共创	-12495
共济	-12496
冰霜	-12497
别后	-12498
功名	-12499
哑巴	-12500
回肠	-12501
大漠	-12502
如诗	-12503
家庭	-12504
寻求	-12505
小草	-12506
惋惜	-12507
成对	-12508
所欲	-12509
拿来	-12510
挫败	-12511
春意	-12512
柔肠	-12513
楼台	-12514
殊途	-12515
的都	-12516
翩跹	-12517
而行	-12518
肌肤	-12519
融融	-12520
轨道	-12521
还好	-12522
透着	-12523
ive	-12524
▁WO	-12525
▁他在	-12526
▁却不	-12527
▁历尽	-12528
▁可爱	-12529
▁咫尺	-12530
▁层层	-12531
▁炊烟	-12532
▁算逑	-12533
▁说了	-12534
▁轻抚	-12535
▁轻松	-12536
▁都想	-12537
▁雨滴	-12538
为我而	-12539
会让我	-12540
你可以	-12541
哭一场	-12542
我心碎	-12543
痛快快	-12544
的笑声	-12545
自己去	-12546
茉莉花	-12547
▁一幕幕	-12548
▁五十六	-12549
▁你心里	-12550
▁却只能	-12551
一去不回	-12552
我的所有	-12553
无忧无虑	-12554
离不开你	-12555
花儿一样	-12556
转身离去	-12557
▁为了生活	-12558
▁想你的心	-12559
▁彼	-12560
▁父	-12561
万苦	-12562
了那	-12563
作陪	-12564
再有	-12565
包裹	-12566
好散	-12567
巅峰	-12568
拨动	-12569
时时	-12570
杏花	-12571
的去	-12572
盔甲	-12573
老少	-12574
表明	-12575
觉醒	-12576
许我	-12577
▁唱歌	-12578
▁坎坷	-12579
▁奇迹	-12580
▁收获	-12581
▁民族	-12582
▁谁要	-12583
▁长发	-12584
你说的	-12585
千万遍	-12586
天与地	-12587
念着你	-12588
的遗憾	-12589
的那份	-12590
都有你	-12591
▁是为了	-12592
▁自由的	-12593
▁那个人	-12594
在回忆里	-12595
什么都没有	-12596
▁丹	-12597
▁岂	-12598
▁扶	-12599
仓促	-12600
余味	-12601
别要	-12602
化妆	-12603
反正	-12604
吹起	-12605
四月	-12606
地带	-12607
就当	-12608
平生	-12609
往后	-12610
得见	-12611
日日	-12612
日暮	-12613
明知	-12614
松松	-12615
波折	-12616
消愁	-12617
湛蓝	-12618
满城	-12619
灰飞	-12620
的甜	-12621
的草	-12622
相传	-12623
碧波	-12624
落霞	-12625
试试	-12626
谁家	-12627
▁当然	-12628
▁旺世	-12629
▁朝着	-12630
▁浪费	-12631
▁烽火	-12632
▁谁还	-12633
▁透明	-12634
▁雨中	-12635
不只是	-12636
也是你	-12637
会永远	-12638
你最美	-12639
尽所有	-12640
往心里	-12641
志成城	-12642
把回忆	-12643
拥有过	-12644
的港湾	-12645
▁多么想	-12646
▁我想说	-12647
▁挥挥手	-12648
一片一片	-12649
我的心跳	-12650
我的梦里	-12651
▁万水千山	-12652
▁你的容颜	-12653
▁你的心里	-12654
▁就算世界	-12655
▁爱我的人	-12656
属于自己的	-12657
st	-12658
▁耳	-12659
中心	-12660
交代	-12661
倒映	-12662
假期	-12663
受到	-12664
含着	-12665
咚锵	-12666
大胆	-12667
就快	-12668
抛在	-12669
抹掉	-12670
挡雨	-12671
挽救	-12672
火海	-12673
爱要	-12674
狮子	-12675
玩偶	-12676
笑看	-12677
背包	-12678
锻炼	-12679
▁一望	-12680
▁只得	-12681
▁好吗	-12682
▁学着	-12683
▁彻底	-12684
▁春花	-12685
▁来年	-12686
▁海浪	-12687
▁海鸥	-12688
▁狠心	-12689
▁穿着	-12690
▁街灯	-12691
▁赶快	-12692
▁追忆	-12693
偷偷地	-12694
开始了	-12695
情深意	-12696
成长的	-12697
最深处	-12698
每一步	-12699
的雨季	-12700
风雨里	-12701
魂颠倒	-12702
▁不去想	-12703
▁如果这	-12704
▁怎么说	-12705
▁难过的	-12706
若即若离	-12707
▁奋不顾身	-12708
id	-12709
▁声	-12710
▁调	-12711
亲口	-12712
句子	-12713
唱到	-12714
堪则	-12715
往常	-12716
恩赐	-12717
情浓	-12718
惊艳	-12719
放着	-12720
教人	-12721
早起	-12722
树林	-12723
溶解	-12724
点半	-12725
班车	-12726
神往	-12727
至死	-12728
街中	-12729
追追	-12730
邻居	-12731
风和	-12732
▁困难	-12733
▁爱心	-12734
▁神州	-12735
丢下我	-12736
南地北	-12737
懂不懂	-12738
才会有	-12739
无忌惮	-12740
是自己	-12741
沙滩上	-12742
泪两行	-12743
的年代	-12744
还能够	-12745
这世上	-12746
▁下一站	-12747
▁也许会	-12748
▁你和他	-12749
▁你好吗	-12750
▁就别再	-12751
▁我发现	-12752
▁我有我	-12753
▁满天的	-12754
已经不再	-12755
我的家乡	-12756
放声歌唱	-12757
还有多少	-12758
▁我不在乎	-12759
▁弦	-12760
▁迫	-12761
一枝	-12762
分岔	-12763
含情	-12764
吻别	-12765
和华	-12766
咱的	-12767
情愁	-12768
收集	-12769
无垠	-12770
楼上	-12771
爱护	-12772
画上	-12773
载着	-12774
输给	-12775
锋利	-12776
随心	-12777
麻麻	-12778
▁Do	-12779
▁一丝	-12780
▁令人	-12781
▁春雨	-12782
▁浓情	-12783
▁男孩	-12784
▁逍遥	-12785
一段情	-12786
不改变	-12787
你到底	-12788
你我他	-12789
发脾气	-12790
夕阳下	-12791
很难过	-12792
思暮想	-12793
熙熙攘	-12794
珍惜你	-12795
男子汉	-12796
的所有	-12797
相思的	-12798
第一个	-12799
迎着风	-12800
▁全都是	-12801
▁时间的	-12802
▁雨后的	-12803
你的双眼	-12804
创造奇迹	-12805
只是一场	-12806
在你心中	-12807
牵我的手	-12808
▁乘风破浪	-12809
▁我不后悔	-12810
▁我找不到	-12811
▁我还记得	-12812
▁缠缠绵绵	-12813
▁奋	-12814
▁掌	-12815
▁畅	-12816
佛前	-12817
冲冲	-12818
可乐	-12819
心却	-12820
打打	-12821
拍拍	-12822
斩断	-12823
有好	-12824
海面	-12825
满心	-12826
独个	-12827
苦果	-12828
装饰	-12829
誓约	-12830
贪心	-12831
酒窝	-12832
野兽	-12833
风帆	-12834
飞了	-12835
▁下次	-12836
▁人说	-12837
▁绿色	-12838
一无二	-12839
不分开	-12840
在角落	-12841
带给你	-12842
来相会	-12843
的节拍	-12844
的花瓣	-12845
的雪花	-12846
让你我	-12847
酒当歌	-12848
▁不用再	-12849
▁也许这	-12850
▁我的好	-12851
▁最后却	-12852
我的真心	-12853
给我力量	-12854
难以忘记	-12855
▁万家灯火	-12856
▁我不要再	-12857
▁有你陪伴	-12858
▁仁	-12859
一出	-12860
入戏	-12861
如醉	-12862
寥寥	-12863
扇窗	-12864
无泪	-12865
未见	-12866
痴缠	-12867
眼看	-12868
着心	-12869
穿行	-12870
胸中	-12871
自古	-12872
闪光	-12873
颠覆	-12874
飞走	-12875
▁你太	-12876
▁刚好	-12877
▁大街	-12878
▁尘世	-12879
▁百姓	-12880
▁窗前	-12881
▁笑声	-12882
▁让梦	-12883
▁谁可	-12884
▁酒醉	-12885
▁魅力	-12886
不停息	-12887
再重来	-12888
剪不断	-12889
回忆中	-12890
回来了	-12891
太匆匆	-12892
快乐和	-12893
清楚楚	-12894
的剧情	-12895
的最后	-12896
空荡荡	-12897
随风去	-12898
▁你可知	-12899
▁只怪我	-12900
▁在夜里	-12901
▁让梦想	-12902
你的眼泪	-12903
在我心头	-12904
熙熙攘攘	-12905
肆无忌惮	-12906
鸟语花香	-12907
▁如果当初	-12908
▁恭喜发财	-12909
▁我就是你	-12910
▁选	-12911
不大	-12912
再起	-12913
咕咕	-12914
喝着	-12915
如旧	-12916
富裕	-12917
寸断	-12918
方知	-12919
来愈	-12920
长得	-12921
▁一梦	-12922
▁一轮	-12923
▁大漠	-12924
▁彷徨	-12925
▁心疼	-12926
▁成败	-12927
▁我若	-12928
▁河水	-12929
你怎么	-12930
你都不	-12931
光剑影	-12932
咖啡店	-12933
在想你	-12934
怀抱里	-12935
我怎么	-12936
步步高	-12937
温暖我	-12938
的期盼	-12939
的蓝天	-12940
蠢蠢欲	-12941
▁一步步	-12942
▁何必要	-12943
▁你的泪	-12944
▁做你的	-12945
▁天地间	-12946
▁有个人	-12947
▁给了我	-12948
▁谁也不	-12949
变得如此	-12950
守护着你	-12951
我们的家	-12952
我的心意	-12953
最幸福的	-12954
来吧来吧	-12955
涌上心头	-12956
陪伴着你	-12957
▁一遍一遍	-12958
▁你说我们	-12959
▁亲爱的朋友	-12960
at	-12961
oy	-12962
ul	-12963
▁法	-12964
▁邀	-12965
丈量	-12966
上瘾	-12967
乞求	-12968
任凭	-12969
作祟	-12970
公里	-12971
半醒	-12972
去过	-12973
古今	-12974
君子	-12975
圆圆	-12976
坏人	-12977
大年	-12978
奔忙	-12979
宿醉	-12980
小花	-12981
就来	-12982
张扬	-12983
恬静	-12984
想家	-12985
拉雅	-12986
摆布	-12987
照样	-12988
磨灭	-12989
高低	-12990
▁就象	-12991
▁当兵	-12992
▁悲欢	-12993
▁文明	-12994
▁热烈	-12995
▁背着	-12996
▁见面	-12997
▁踏遍	-12998
下一次	-12999
不离分	-13000
共婵娟	-13001
在心窝	-13002
在手中	-13003
定决心	-13004
无影踪	-13005
是朋友	-13006
的原因	-13007
的家乡	-13008
的礼物	-13009
的胸膛	-13010
让爱情	-13011
走多远	-13012
过不去	-13013
这一个	-13014
风吹散	-13015
▁不懂得	-13016
▁完美的	-13017
▁知道你	-13018
你在何方	-13019
出现在我	-13020
日出日落	-13021
相信爱情	-13022
▁come	-13023
▁如果不是	-13024
▁我的心中	-13025
▁wanna	-13026
ro	-13027
▁妈	-13028
▁完	-13029
▁扮	-13030
▁挤	-13031
▁诸	-13032
下山	-13033
前生	-13034
孟婆	-13035
强忍	-13036
懒惰	-13037
扛起	-13038
执手	-13039
掉落	-13040
满分	-13041
灵感	-13042
独守	-13043
甘苦	-13044
疯子	-13045
看开	-13046
身材	-13047
邪恶	-13048
麦田	-13049
黄花	-13050
默然	-13051
▁Ho	-13052
▁万般	-13053
▁却有	-13054
▁巍巍	-13055
▁情是	-13056
▁无边	-13057
▁枫叶	-13058
▁灰色	-13059
▁熊熊	-13060
▁百花	-13061
▁若要	-13062
▁让她	-13063
好一点	-13064
男朋友	-13065
的那种	-13066
要学会	-13067
▁Don	-13068
▁不后悔	-13069
▁从此我	-13070
▁你能否	-13071
▁想一想	-13072
▁我的手	-13073
▁有情人	-13074
▁灰色的	-13075
▁而如今	-13076
▁肩并肩	-13077
一个地方	-13078
忘了自己	-13079
所有的爱	-13080
是谁的错	-13081
每个人都	-13082
深爱的人	-13083
重新开始	-13084
▁失去了你	-13085
▁甜言蜜语	-13086
▁存	-13087
万户	-13088
不识	-13089
做过	-13090
儿呀	-13091
国的	-13092
在说	-13093
孤影	-13094
就够	-13095
庄严	-13096
忘返	-13097
成一	-13098
曾有	-13099
有难	-13100
武汉	-13101
流汗	-13102
海棠	-13103
灼热	-13104
爱惜	-13105
痴恋	-13106
的鱼	-13107
离殇	-13108
老虎	-13109
超级	-13110
远山	-13111
▁一去	-13112
▁却被	-13113
▁小雨	-13114
▁来来	-13115
五千年	-13116
会出现	-13117
向未来	-13118
孩子气	-13119
春风里	-13120
潇洒洒	-13121
着寂寞	-13122
▁不能够	-13123
▁只是一	-13124
▁听说你	-13125
▁深深地	-13126
▁爱不爱	-13127
▁让回忆	-13128
为我停留	-13129
保持沉默	-13130
情深缘浅	-13131
放在心里	-13132
烟消云散	-13133
离开了我	-13134
说声再见	-13135
▁这是我们	-13136
▁娘	-13137
▁异	-13138
▁赞	-13139
▁锦	-13140
不闻	-13141
个小	-13142
主席	-13143
于我	-13144
人意	-13145
任意	-13146
傻子	-13147
出息	-13148
别怕	-13149
喝采	-13150
噢噢	-13151
家家	-13152
得上	-13153
所求	-13154
歌舞	-13155
湿润	-13156
灵灵	-13157
符号	-13158
营造	-13159
认命	-13160
请别	-13161
跳吧	-13162
轻叹	-13163
黑发	-13164
▁世人	-13165
▁代表	-13166
▁保护	-13167
▁宿命	-13168
▁我自	-13169
▁无畏	-13170
▁舞台	-13171
▁走着	-13172
再回来	-13173
千万别	-13174
的以后	-13175
的命运	-13176
的黄昏	-13177
▁就算有	-13178
▁感情的	-13179
▁我在等	-13180
▁生活的	-13181
▁脑海里	-13182
你对我的	-13183
全世界都	-13184
形影不离	-13185
执迷不悟	-13186
流星划过	-13187
潇潇洒洒	-13188
知道我的	-13189
过眼云烟	-13190
▁别再让我	-13191
▁我愿化作	-13192
▁严	-13193
▁雅	-13194
何以	-13195
余晖	-13196
双人	-13197
古城	-13198
场面	-13199
志气	-13200
才好	-13201
挑剔	-13202
无分	-13203
桥边	-13204
独白	-13205
甜的	-13206
生意	-13207
的过	-13208
离人	-13209
腐朽	-13210
若有	-13211
说句	-13212
跟鞋	-13213
这杯	-13214
逻辑	-13215
阔步	-13216
顷刻	-13217
▁东北	-13218
▁乖乖	-13219
▁哦哦	-13220
▁夏日	-13221
▁大爱	-13222
▁季节	-13223
▁情路	-13224
▁我欲	-13225
▁扬起	-13226
▁每段	-13227
▁说说	-13228
一直都	-13229
中国人	-13230
也不过	-13231
你还在	-13232
回家乡	-13233
太执着	-13234
的伤感	-13235
经历过	-13236
老百姓	-13237
觉得好	-13238
走的路	-13239
▁如此的	-13240
▁没想过	-13241
▁甜蜜的	-13242
▁黑色的	-13243
一片天空	-13244
成为你的	-13245
是我自己	-13246
看不清楚	-13247
▁全心全意	-13248
▁吐	-13249
▁机	-13250
万马	-13251
不免	-13252
不合	-13253
个好	-13254
之时	-13255
从今	-13256
催眠	-13257
六七	-13258
兰花	-13259
再追	-13260
出手	-13261
到晚	-13262
十四	-13263
唱完	-13264
在哭	-13265
在笑	-13266
思忆	-13267
恐怖	-13268
擅长	-13269
普照	-13270
的孤	-13271
科学	-13272
路旁	-13273
进你	-13274
黑了	-13275
▁任性	-13276
▁关上	-13277
▁大雁	-13278
▁心如	-13279
▁思想	-13280
▁恨你	-13281
▁手里	-13282
▁拼凑	-13283
▁流过	-13284
▁琵琶	-13285
▁街上	-13286
▁长安	-13287
了双眼	-13288
变了样	-13289
坦荡荡	-13290
把手牵	-13291
春天里	-13292
没烦恼	-13293
等多久	-13294
都值得	-13295
▁心中有	-13296
▁爱已经	-13297
你我之间	-13298
我是真的	-13299
都无所谓	-13300
▁我的眼睛	-13301
▁漂	-13302
▁音	-13303
▁鲜	-13304
三两	-13305
不染	-13306
不须	-13307
会来	-13308
冬夜	-13309
冲锋	-13310
出路	-13311
却有	-13312
夙愿	-13313
大笑	-13314
寄望	-13315
对岸	-13316
巧语	-13317
开在	-13318
弟兄	-13319
彩蝶	-13320
悠闲	-13321
战火	-13322
新生	-13323
是要	-13324
泪湿	-13325
活泼	-13326
火光	-13327
竞争	-13328
谁对	-13329
过份	-13330
长寿	-13331
雪域	-13332
▁依依	-13333
▁坚守	-13334
▁孤身	-13335
▁寒冷	-13336
▁恋人	-13337
▁悄然	-13338
▁成了	-13339
▁晚霞	-13340
▁爷爷	-13341
▁隔壁	-13342
一起飞	-13343
你的吻	-13344
原谅你	-13345
好地方	-13346
心底的	-13347
才不会	-13348
是永远	-13349
没人能	-13350
的痛苦	-13351
目的地	-13352
聚好散	-13353
能有几	-13354
▁bye	-13355
▁为梦想	-13356
▁刹那间	-13357
▁我不停	-13358
▁抬头望	-13359
▁每一刻	-13360
什么样的	-13361
快快乐乐	-13362
没有任何	-13363
藏在心里	-13364
都是你的	-13365
▁我的天空	-13366
▁曾经我们	-13367
▁爱你爱你	-13368
想要的结果	-13369
al	-13370
▁报	-13371
一朝	-13372
丈夫	-13373
与悲	-13374
书包	-13375
哒啦	-13376
就很	-13377
得已	-13378
德勒	-13379
情已	-13380
感染	-13381
插曲	-13382
歇歇	-13383
潦草	-13384
祥云	-13385
绿草	-13386
自欺	-13387
莫测	-13388
街边	-13389
言又	-13390
财富	-13391
这呢	-13392
▁al	-13393
▁ya	-13394
▁一群	-13395
▁伤感	-13396
▁何惧	-13397
▁吹散	-13398
▁想家	-13399
▁时空	-13400
▁谁让	-13401
一个个	-13402
好难受	-13403
情画意	-13404
慢慢走	-13405
烦恼都	-13406
的花蕊	-13407
老朋友	-13408
西德勒	-13409
逃不出	-13410
醉一回	-13411
▁一生中	-13412
▁你早已	-13413
▁另一个	-13414
▁回头看	-13415
▁在梦中	-13416
▁我一生	-13417
▁我坐在	-13418
▁红色的	-13419
▁要如何	-13420
不醉不归	-13421
▁miss	-13422
▁不忘初心	-13423
▁告诉你我	-13424
▁有你有我	-13425
▁Hello	-13426
▁建	-13427
▁晒	-13428
▁秀	-13429
▁赌	-13430
▁逢	-13431
不信	-13432
不响	-13433
不落	-13434
大利	-13435
大脑	-13436
大雁	-13437
弹琴	-13438
志在	-13439
所向	-13440
挥舞	-13441
既然	-13442
暖流	-13443
未算	-13444
水里	-13445
沟沟	-13446
流失	-13447
流血	-13448
神情	-13449
空了	-13450
镌刻	-13451
阵风	-13452
颗星	-13453
▁友谊	-13454
▁小姐	-13455
▁我信	-13456
▁没了	-13457
▁繁花	-13458
▁背负	-13459
▁迎面	-13460
▁马蹄	-13461
乐逍遥	-13462
就让它	-13463
情歌唱	-13464
想和你	-13465
捉迷藏	-13466
的安排	-13467
的热情	-13468
神奇的	-13469
▁不要在	-13470
▁你的好	-13471
▁回忆是	-13472
▁就像你	-13473
再也不能	-13474
卿卿我我	-13475
咿呀咿呀	-13476
唱一首歌	-13477
嘀嗒嘀嗒	-13478
海角天边	-13479
海阔天空	-13480
▁再也不会	-13481
▁年年岁岁	-13482
▁想着你的	-13483
▁曲终人散	-13484
▁没有了你	-13485
▁那是一个	-13486
万古	-13487
与她	-13488
之年	-13489
假设	-13490
到最	-13491
呼呼	-13492
咽下	-13493
唿喊	-13494
坚固	-13495
定了	-13496
密密	-13497
尝尽	-13498
巍峨	-13499
帝王	-13500
幻化	-13501
心态	-13502
心理	-13503
把头	-13504
提笔	-13505
星月	-13506
没用	-13507
消灭	-13508
涌上	-13509
深宵	-13510
狐狸	-13511
笑靥	-13512
船儿	-13513
蜷缩	-13514
重回	-13515
隔世	-13516
隧道	-13517
飞出	-13518
▁不许	-13519
▁交织	-13520
▁四处	-13521
▁好人	-13522
▁家是	-13523
▁怎奈	-13524
▁男女	-13525
▁诺言	-13526
▁身在	-13527
▁辜负	-13528
▁逐渐	-13529
低着头	-13530
你不必	-13531
冷风吹	-13532
到终点	-13533
和别人	-13534
在黑夜	-13535
好好地	-13536
爱到底	-13537
用我的	-13538
的天边	-13539
的梦里	-13540
被爱的	-13541
要分手	-13542
▁为何不	-13543
▁在那个	-13544
▁带着我	-13545
▁我们像	-13546
▁这一段	-13547
▁我又何必	-13548
▁我就是我	-13549
um	-13550
▁晃	-13551
▁纤	-13552
▁荣	-13553
▁豪	-13554
不做	-13555
不坏	-13556
不禁	-13557
不经	-13558
了灯	-13559
云涌	-13560
以外	-13561
你到	-13562
你知	-13563
光临	-13564
再问	-13565
冠军	-13566
千般	-13567
卓玛	-13568
又见	-13569
发酵	-13570
墙上	-13571
姊妹	-13572
忽远	-13573
摆动	-13574
是雨	-13575
本性	-13576
泡影	-13577
眼圈	-13578
紧闭	-13579
群山	-13580
走上	-13581
迷宫	-13582
闻到	-13583
青梅	-13584
▁云儿	-13585
▁再大	-13586
▁哭着	-13587
▁填满	-13588
▁女儿	-13589
▁度过	-13590
▁感到	-13591
▁摇摆	-13592
▁树叶	-13593
▁珍藏	-13594
▁离去	-13595
▁背影	-13596
一片海	-13597
中有你	-13598
人间的	-13599
你就是	-13600
入梦乡	-13601
又一个	-13602
就不能	-13603
已过去	-13604
我生命	-13605
渐渐地	-13606
的安慰	-13607
的那边	-13608
经过的	-13609
送你的	-13610
都不想	-13611
orry	-13612
▁别担心	-13613
你的脸庞	-13614
照顾自己	-13615
留给自己	-13616
白发苍苍	-13617
▁想你的夜	-13618
▁我想和你	-13619
▁海阔天空	-13620
▁护	-13621
▁盖	-13622
▁运	-13623
▁配	-13624
一唱	-13625
一瞥	-13626
减少	-13627
延长	-13628
开头	-13629
徒劳	-13630
手牵	-13631
挺起	-13632
旭日	-13633
疼惜	-13634
目屎	-13635
称赞	-13636
美美	-13637
蜜糖	-13638
诞生	-13639
那头	-13640
错的	-13641
青睐	-13642
飞雪	-13643
one	-13644
▁一同	-13645
▁七彩	-13646
▁卑微	-13647
▁小妹	-13648
▁情怀	-13649
▁我写	-13650
▁日记	-13651
▁眺望	-13652
▁翱翔	-13653
▁至今	-13654
▁马上	-13655
不用再	-13656
了好久	-13657
很遥远	-13658
是怎样	-13659
照顾你	-13660
的妈妈	-13661
让眼泪	-13662
▁不停地	-13663
▁不爱我	-13664
▁任时光	-13665
▁你叫我	-13666
▁你走的	-13667
▁天边的	-13668
▁我是谁	-13669
▁草原上	-13670
▁那年的	-13671
一个人在	-13672
变成回忆	-13673
想起了你	-13674
我的温柔	-13675
美丽的梦	-13676
▁为了你我	-13677
▁你是否也	-13678
▁我看着你	-13679
▁甜甜蜜蜜	-13680
▁那些曾经	-13681
在我的身旁	-13682
▁也许有一天	-13683
▁勤	-13684
▁民	-13685
不脱	-13686
乡村	-13687
从何	-13688
何求	-13689
全非	-13690
参与	-13691
发梢	-13692
喝了	-13693
多美	-13694
大河	-13695
太高	-13696
委婉	-13697
归零	-13698
惊叹	-13699
撑着	-13700
更浓	-13701
而别	-13702
背面	-13703
萍水	-13704
谅解	-13705
转瞬	-13706
轻柔	-13707
释然	-13708
阴暗	-13709
高处	-13710
▁一寸	-13711
▁不畏	-13712
▁众生	-13713
▁北方	-13714
▁异乡	-13715
▁成熟	-13716
▁热闹	-13717
▁看清	-13718
▁若无	-13719
▁通通	-13720
两个字	-13721
也需要	-13722
唱一首	-13723
就好像	-13724
彩色的	-13725
成一个	-13726
格里拉	-13727
残忍的	-13728
的宇宙	-13729
的心田	-13730
的电影	-13731
的那片	-13732
长相守	-13733
阳光照	-13734
▁中国梦	-13735
▁从现在	-13736
▁你陪我	-13737
▁回头望	-13738
▁就当作	-13739
▁开心的	-13740
▁谁让你	-13741
伤心难过	-13742
你的生活	-13743
对我来说	-13744
泪如雨下	-13745
满身伤痕	-13746
▁我的未来	-13747
▁有一种爱	-13748
▁难道这就是	-13749
▁唐	-13750
万世	-13751
上一	-13752
之际	-13753
孩童	-13754
小镇	-13755
怪兽	-13756
放进	-13757
新郎	-13758
明年	-13759
梦魇	-13760
欠你	-13761
泪落	-13762
满腹	-13763
焰火	-13764
缺点	-13765
胜负	-13766
走掉	-13767
走路	-13768
那日	-13769
▁一别	-13770
▁一笔	-13771
▁人情	-13772
▁呀啦	-13773
▁喝下	-13774
▁怀抱	-13775
▁要让	-13776
▁风云	-13777
任何人	-13778
受委屈	-13779
在爱的	-13780
坏脾气	-13781
如流水	-13782
子之手	-13783
我最深	-13784
所有人	-13785
是寂寞	-13786
桃花开	-13787
的角色	-13788
要珍惜	-13789
说不清	-13790
▁不想要	-13791
▁回想起	-13792
▁夏天的	-13793
▁我不曾	-13794
▁能让我	-13795
爱到最后	-13796
若隐若现	-13797
雨打风吹	-13798
▁不会让你	-13799
▁你给的爱	-13800
▁只有自己	-13801
▁好久不见	-13802
▁我以为你	-13803
▁有谁能够	-13804
▁还来不及	-13805
▁这段感情	-13806
▁亲爱的姑娘	-13807
▁直到有一天	-13808
亲情	-13809
传人	-13810
十万	-13811
听了	-13812
呀追	-13813
团聚	-13814
婀娜	-13815
岛屿	-13816
很甜	-13817
很近	-13818
心软	-13819
情调	-13820
感冒	-13821
成绩	-13822
搜索	-13823
日葵	-13824
枯燥	-13825
正气	-13826
稚嫩	-13827
行踪	-13828
跌落	-13829
逗你	-13830
都太	-13831
醒着	-13832
险阻	-13833
雨落	-13834
飞驰	-13835
▁伟大	-13836
▁信仰	-13837
▁冷风	-13838
▁同行	-13839
▁暮色	-13840
▁模煳	-13841
▁绚烂	-13842
也许会	-13843
你爱的	-13844
到不了	-13845
原来的	-13846
嘲笑我	-13847
我不愿	-13848
无数次	-13849
的答案	-13850
红红的	-13851
那么长	-13852
▁我也许	-13853
▁谁不想	-13854
▁不要忘记	-13855
▁就让一切	-13856
▁没有人会	-13857
▁只要你愿意	-13858
▁兴	-13859
共对	-13860
冲击	-13861
几乎	-13862
唱唱	-13863
嘶吼	-13864
多些	-13865
宣言	-13866
已在	-13867
微信	-13868
撕开	-13869
楼下	-13870
泡泡	-13871
爹和	-13872
的热	-13873
紫千	-13874
舞曲	-13875
衡量	-13876
随地	-13877
▁倾诉	-13878
▁全是	-13879
▁决心	-13880
▁凌乱	-13881
▁完成	-13882
▁有心	-13883
▁望你	-13884
▁正在	-13885
▁沉溺	-13886
▁没事	-13887
▁白发	-13888
▁菩提	-13889
▁装满	-13890
▁身后	-13891
▁风光	-13892
一道光	-13893
去承受	-13894
大眼睛	-13895
就好了	-13896
就能够	-13897
带一路	-13898
微笑的	-13899
我不是	-13900
才懂得	-13901
的姿态	-13902
的诗篇	-13903
的足迹	-13904
脑海中	-13905
谁是谁	-13906
陪你看	-13907
▁一段情	-13908
▁你的情	-13909
▁全部都	-13910
▁千万别	-13911
▁唯一的	-13912
▁夜深了	-13913
▁幸福在	-13914
和你一样	-13915
唱给你听	-13916
▁我想我会	-13917
▁党	-13918
▁子	-13919
▁斟	-13920
一堂	-13921
乱乱	-13922
兔子	-13923
入骨	-13924
同路	-13925
换个	-13926
标准	-13927
沿着	-13928
渔火	-13929
灯塔	-13930
烈焰	-13931
爱不	-13932
琐碎	-13933
瑟瑟	-13934
的冷	-13935
石上	-13936
补偿	-13937
难再	-13938
▁也没	-13939
▁你呀	-13940
▁你这	-13941
▁只等	-13942
▁无穷	-13943
▁迷恋	-13944
▁麻烦	-13945
一扇窗	-13946
一生都	-13947
以为我	-13948
匆匆的	-13949
却让我	-13950
就别再	-13951
来安慰	-13952
的默契	-13953
▁却不敢	-13954
▁当你说	-13955
▁新年到	-13956
多少风雨	-13957
我的存在	-13958
无法挽回	-13959
破碎的心	-13960
给你的爱	-13961
自己的路	-13962
▁开开心心	-13963
一个人生活	-13964
▁威	-13965
▁融	-13966
▁酿	-13967
像在	-13968
凯旋	-13969
动容	-13970
叮叮	-13971
好戏	-13972
姿势	-13973
媳妇	-13974
惦念	-13975
抚琴	-13976
放歌	-13977
日光	-13978
月落	-13979
来呀	-13980
毕竟	-13981
海中	-13982
涂抹	-13983
瞬息	-13984
米酒	-13985
纠葛	-13986
腐烂	-13987
花期	-13988
谁说	-13989
连绵	-13990
逼我	-13991
▁ho	-13992
▁他乡	-13993
▁尤其	-13994
▁暂时	-13995
▁浩瀚	-13996
▁舞动	-13997
▁过年	-13998
▁遗失	-13999
一家人	-14000
上你的	-14001
充满着	-14002
好难过	-14003
成为了	-14004
有多美	-14005
oney	-14006
▁你究竟	-14007
▁只知道	-14008
▁明明是	-14009
▁记忆里	-14010
▁说过的	-14011
▁这一场	-14012
▁风中的	-14013
一个人过	-14014
失去方向	-14015
我的寂寞	-14016
毫无保留	-14017
没有结局	-14018
跟我一起	-14019
▁一年四季	-14020
▁直到永远	-14021
▁风里雨里	-14022
我们的故事	-14023
▁Goodbye	-14024
▁刘	-14025
▁吞	-14026
万遍	-14027
东南	-14028
倾盆	-14029
再想	-14030
分散	-14031
到尾	-14032
友爱	-14033
变作	-14034
变坏	-14035
变改	-14036
地里	-14037
崛起	-14038
打造	-14039
抛下	-14040
新衣	-14041
时你	-14042
活出	-14043
潮流	-14044
痛得	-14045
眼内	-14046
竹林	-14047
红灯	-14048
蜜甜	-14049
西楼	-14050
许久	-14051
走我	-14052
难求	-14053
风度	-14054
▁一座	-14055
▁光明	-14056
▁再不	-14057
▁几时	-14058
▁又能	-14059
▁叹息	-14060
▁我懂	-14061
▁浅浅	-14062
▁甘心	-14063
▁萦绕	-14064
▁路边	-14065
▁锦绣	-14066
▁飞吧	-14067
为你做	-14068
也只能	-14069
在等你	-14070
多余的	-14071
就像那	-14072
很幸福	-14073
我不曾	-14074
我心间	-14075
把思念	-14076
牵着我	-14077
的午后	-14078
给的爱	-14079
谁又能	-14080
这里的	-14081
都不要	-14082
都让我	-14083
▁一杯酒	-14084
▁不喜欢	-14085
▁你不能	-14086
▁我突然	-14087
▁牵着你	-14088
▁看不透	-14089
▁让彼此	-14090
不期而遇	-14091
岁岁年年	-14092
无可奈何	-14093
无法挽留	-14094
是我的家	-14095
蜜语甜言	-14096
▁your	-14097
▁一二三四	-14098
▁如何才能	-14099
▁年轻的心	-14100
▁我的心儿	-14101
▁爱的世界	-14102
▁窗外的雨	-14103
IN	-14104
▁U	-14105
▁侠	-14106
亦要	-14107
任由	-14108
再无	-14109
初夏	-14110
启程	-14111
哭笑	-14112
场上	-14113
定会	-14114
客人	-14115
就放	-14116
心花	-14117
怀旧	-14118
愚笨	-14119
星火	-14120
是缘	-14121
来往	-14122
海滩	-14123
瀑布	-14124
眉毛	-14125
等的	-14126
花红	-14127
说完	-14128
贝壳	-14129
踏过	-14130
迂回	-14131
过海	-14132
▁An	-14133
▁We	-14134
▁一叶	-14135
▁一闪	-14136
▁不做	-14137
▁你为	-14138
▁你问	-14139
▁去看	-14140
▁摘下	-14141
▁撕裂	-14142
▁真是	-14143
▁踩着	-14144
▁追赶	-14145
▁风霜	-14146
会让人	-14147
你所有	-14148
做自己	-14149
划过的	-14150
就应该	-14151
心中有	-14152
我们在	-14153
的落叶	-14154
▁fly	-14155
▁可如今	-14156
▁悄悄的	-14157
▁洁白的	-14158
▁爱是一	-14159
▁眼睁睁	-14160
▁笑一笑	-14161
▁跟着你	-14162
分分合合	-14163
拥抱着你	-14164
柴米油盐	-14165
▁time	-14166
▁你的出现	-14167
▁我们说好	-14168
一遍又一遍	-14169
▁闷	-14170
▁鸿	-14171
交叉	-14172
交汇	-14173
修行	-14174
儿哟	-14175
写进	-14176
嘴脸	-14177
图画	-14178
对的	-14179
恢复	-14180
指缝	-14181
操劳	-14182
旖旎	-14183
昔日	-14184
晨光	-14185
站着	-14186
笑谈	-14187
缺陷	-14188
见了	-14189
讲出	-14190
难懂	-14191
▁Ch	-14192
▁一支	-14193
▁七月	-14194
▁不信	-14195
▁不通	-14196
▁儿时	-14197
▁分离	-14198
▁哎嗨	-14199
▁时钟	-14200
一步步	-14201
伤人的	-14202
受过伤	-14203
如初见	-14204
带给我	-14205
当初的	-14206
惹的祸	-14207
提醒我	-14208
新天地	-14209
的心声	-14210
真假假	-14211
ling	-14212
▁不害怕	-14213
▁从不曾	-14214
▁多想你	-14215
▁带不走	-14216
▁让爱情	-14217
不到你的	-14218
停下脚步	-14219
很久很久	-14220
插上翅膀	-14221
有多爱你	-14222
望眼欲穿	-14223
没有理由	-14224
站在原地	-14225
见你一面	-14226
▁我们拥有	-14227
00	-14228
▁凤	-14229
▁拔	-14230
▁描	-14231
▁根	-14232
▁绘	-14233
▁麻	-14234
上下	-14235
丑陋	-14236
丽江	-14237
之火	-14238
入你	-14239
六月	-14240
分割	-14241
处理	-14242
大哥	-14243
宣泄	-14244
很小	-14245
成行	-14246
手足	-14247
晶晶	-14248
更新	-14249
有话	-14250
此际	-14251
满目	-14252
然而	-14253
目前	-14254
空旷	-14255
背对	-14256
自责	-14257
芦苇	-14258
荡起	-14259
衬托	-14260
谈笑	-14261
转移	-14262
这晚	-14263
道是	-14264
销魂	-14265
顺风	-14266
香港	-14267
▁三年	-14268
▁停在	-14269
▁写满	-14270
▁北风	-14271
▁南方	-14272
▁坠入	-14273
▁我更	-14274
▁手心	-14275
▁挽留	-14276
▁滚烫	-14277
▁街角	-14278
一首诗	-14279
去体会	-14280
弥漫着	-14281
是一家	-14282
有多苦	-14283
看起来	-14284
着幸福	-14285
跟随你	-14286
▁let	-14287
▁可不可	-14288
▁和你的	-14289
▁我等待	-14290
一点点的	-14291
何去何从	-14292
别来无恙	-14293
学会坚强	-14294
属于我们	-14295
我的心房	-14296
曾经爱过	-14297
阴晴圆缺	-14298
▁念念不忘	-14299
▁我不需要	-14300
▁没有谁能	-14301
▁让我无法	-14302
观世音菩萨	-14303
▁是否还记得	-14304
▁博	-14305
▁填	-14306
▁村	-14307
不惊	-14308
了好	-14309
亮着	-14310
似箭	-14311
何日	-14312
你为	-14313
便会	-14314
偏要	-14315
停顿	-14316
儿牵	-14317
克风	-14318
君王	-14319
回我	-14320
奔流	-14321
子的	-14322
寻梦	-14323
峥嵘	-14324
带点	-14325
引领	-14326
很深	-14327
心灰	-14328
抓牢	-14329
方长	-14330
残阳	-14331
淡然	-14332
潮湿	-14333
烟灭	-14334
疼我	-14335
看淡	-14336
真话	-14337
纵使	-14338
轻快	-14339
铮铮	-14340
镇定	-14341
飞上	-14342
▁五彩	-14343
▁你该	-14344
▁尝尽	-14345
▁我早	-14346
▁换个	-14347
▁洒脱	-14348
▁纵有	-14349
▁说出	-14350
▁足够	-14351
停止了	-14352
对爱的	-14353
有你陪	-14354
欺骗我	-14355
的大海	-14356
的等候	-14357
离开过	-14358
等到你	-14359
经得起	-14360
过新年	-14361
还给你	-14362
这城市	-14363
▁为何还	-14364
▁你也不	-14365
▁你的眼	-14366
▁你这样	-14367
▁可你却	-14368
▁穿越了	-14369
▁让你我	-14370
▁记得你	-14371
▁这颗心	-14372
▁面对着	-14373
再也不会	-14374
是最美的	-14375
现在的我	-14376
粉身碎骨	-14377
给你一个	-14378
阳光灿烂	-14379
▁只怪自己	-14380
▁如今的我	-14381
▁我就这样	-14382
▁我的快乐	-14383
美好的未来	-14384
▁亲爱的妈妈	-14385
▁我们就这样	-14386
ho	-14387
▁倦	-14388
▁刷	-14389
▁搁	-14390
▁果	-14391
▁繁	-14392
东北	-14393
中你	-14394
也被	-14395
列都	-14396
去问	-14397
发挥	-14398
哥们	-14399
噻啰	-14400
归还	-14401
彰显	-14402
情字	-14403
把谁	-14404
拨开	-14405
新月	-14406
是不	-14407
月明	-14408
没事	-14409
没你	-14410
涂地	-14411
的鸟	-14412
祖辈	-14413
要有	-14414
认定	-14415
赛跑	-14416
躯体	-14417
陕北	-14418
难挨	-14419
面包	-14420
驼铃	-14421
▁万众	-14422
▁再说	-14423
▁危险	-14424
▁寒冬	-14425
▁整天	-14426
▁满山	-14427
▁满身	-14428
▁相隔	-14429
▁这夜	-14430
▁逆风	-14431
一双手	-14432
下一站	-14433
不确定	-14434
也匆匆	-14435
天空中	-14436
成为你	-14437
是否还	-14438
的光辉	-14439
的天际	-14440
的情景	-14441
的陪伴	-14442
相思泪	-14443
达列都	-14444
都不敢	-14445
陷入了	-14446
▁为你写	-14447
▁也不再	-14448
▁从来未	-14449
▁你才会	-14450
▁你曾说	-14451
▁同一个	-14452
▁带走了	-14453
▁挥不去	-14454
▁这一秒	-14455
▁都已经	-14456
▁霓虹灯	-14457
▁青春的	-14458
一点时间	-14459
如此美丽	-14460
把你想起	-14461
无话可说	-14462
生生世世	-14463
▁你不爱我	-14464
▁我拿什么	-14465
▁把所有的	-14466
都是我的错	-14467
ie	-14468
▁兵	-14469
▁浸	-14470
▁鬼	-14471
不厌	-14472
世外	-14473
云层	-14474
人不	-14475
从我	-14476
作证	-14477
医生	-14478
吃的	-14479
呀嘛	-14480
喜地	-14481
当兵	-14482
情景	-14483
惬意	-14484
愁肠	-14485
感性	-14486
时针	-14487
是她	-14488
月影	-14489
朱砂	-14490
浪子	-14491
深浅	-14492
满载	-14493
烟波	-14494
的唱	-14495
虚拟	-14496
雷电	-14497
飘起	-14498
骨头	-14499
▁从你	-14500
▁别了	-14501
▁只留	-14502
▁把梦	-14503
▁未必	-14504
▁梧桐	-14505
▁残酷	-14506
▁沸腾	-14507
▁种下	-14508
▁纵横	-14509
▁那句	-14510
不孤单	-14511
丢失了	-14512
你想要	-14513
和快乐	-14514
希望的	-14515
怎么想	-14516
挂念你	-14517
是我家	-14518
是最美	-14519
来了又	-14520
的出现	-14521
的坚强	-14522
言巧语	-14523
说不完	-14524
这一场	-14525
▁伸出手	-14526
▁大家都	-14527
▁好让我	-14528
▁当一切	-14529
▁我带着	-14530
▁我还想	-14531
内心深处	-14532
如此狼狈	-14533
我的心上	-14534
▁人海茫茫	-14535
▁吉祥如意	-14536
▁我不是你	-14537
▁潮起潮落	-14538
▁爱你是我	-14539
在我的心上	-14540
LA	-14541
ra	-14542
wo	-14543
▁“	-14544
▁妙	-14545
▁姐	-14546
▁弯	-14547
▁霜	-14548
休止	-14549
决意	-14550
别无	-14551
千次	-14552
只小	-14553
吹风	-14554
哀求	-14555
寒夜	-14556
就象	-14557
岸上	-14558
影响	-14559
恍然	-14560
按怎	-14561
映照	-14562
更长	-14563
源头	-14564
空城	-14565
这歌	-14566
长留	-14567
静默	-14568
▁亲像	-14569
▁刚刚	-14570
▁却要	-14571
▁喧嚣	-14572
▁喧闹	-14573
▁延续	-14574
▁烛光	-14575
▁看破	-14576
▁离家	-14577
▁解释	-14578
不够好	-14579
什么叫	-14580
在一个	-14581
太漫长	-14582
将一切	-14583
我们能	-14584
我终于	-14585
有个你	-14586
有独钟	-14587
花又开	-14588
▁同样的	-14589
▁听不见	-14590
▁在雨中	-14591
▁带着你	-14592
▁我在你	-14593
▁短暂的	-14594
一直都在	-14595
云淡风轻	-14596
我的心中	-14597
我的未来	-14598
▁中华儿女	-14599
▁全世界都	-14600
▁再也不能	-14601
▁我们就是	-14602
▁我有一个	-14603
今生的唯一	-14604
真的好想你	-14605
▁击	-14606
▁屋	-14607
▁轰	-14608
下坠	-14609
你真	-14610
加一	-14611
南山	-14612
响彻	-14613
困住	-14614
地位	-14615
如常	-14616
如霜	-14617
当头	-14618
掉下	-14619
无解	-14620
日朗	-14621
更迭	-14622
水月	-14623
沃土	-14624
潇湘	-14625
穿了	-14626
自怜	-14627
苦乐	-14628
虚妄	-14629
谢了	-14630
逆风	-14631
飞快	-14632
▁东风	-14633
▁伤过	-14634
▁恩怨	-14635
▁明年	-14636
▁没能	-14637
▁浪迹	-14638
▁美酒	-14639
▁触摸	-14640
▁谁家	-14641
▁身心	-14642
一朵朵	-14643
一转眼	-14644
不得了	-14645
只能够	-14646
如云烟	-14647
少年郎	-14648
有多难	-14649
歌一曲	-14650
永远在	-14651
的风光	-14652
诉衷肠	-14653
谁的错	-14654
走一趟	-14655
辛万苦	-14656
逃不掉	-14657
▁下雨天	-14658
▁告别了	-14659
▁喝一杯	-14660
▁天空中	-14661
▁我哭了	-14662
▁我这样	-14663
▁漫步在	-14664
▁骄傲的	-14665
我们没有	-14666
▁我心中的	-14667
▁最爱的人	-14668
▁一天又一天	-14669
▁短	-14670
不换	-14671
何在	-14672
分裂	-14673
劝我	-14674
半世	-14675
合照	-14676
和弦	-14677
坡上	-14678
带过	-14679
往上	-14680
心口	-14681
怨叹	-14682
慰问	-14683
拭去	-14684
正是	-14685
沉入	-14686
滴血	-14687
演奏	-14688
熘熘	-14689
爱能	-14690
现场	-14691
知后	-14692
花蕾	-14693
许诺	-14694
谁先	-14695
调雨	-14696
走后	-14697
踮起	-14698
过期	-14699
远了	-14700
远古	-14701
难断	-14702
零零	-14703
预感	-14704
ist	-14705
▁一盏	-14706
▁几个	-14707
▁剧情	-14708
▁春来	-14709
▁毕业	-14710
▁百转	-14711
▁耀眼	-14712
▁自在	-14713
▁辉煌	-14714
▁那场	-14715
▁阿里	-14716
一路上	-14717
不够多	-14718
不平凡	-14719
不过的	-14720
了眼睛	-14721
向前闯	-14722
朋友们	-14723
特别的	-14724
的恋爱	-14725
的音符	-14726
神秘的	-14727
▁受了伤	-14728
▁已不再	-14729
▁拥抱着	-14730
▁是多么	-14731
▁爱没有	-14732
▁直到我	-14733
▁还不是	-14734
▁这世上	-14735
到了最后	-14736
蓝蓝的天	-14737
辗转反侧	-14738
▁我们都不	-14739
迷失了方向	-14740
▁来来来来来	-14741
▁让我一个人	-14742
▁伸	-14743
▁浩	-14744
一头	-14745
专一	-14746
仅仅	-14747
低调	-14748
倾倒	-14749
共渡	-14750
兴趣	-14751
吃掉	-14752
听懂	-14753
吹着	-14754
在大	-14755
孤枕	-14756
尝到	-14757
就说	-14758
扰乱	-14759
拨弄	-14760
有用	-14761
权力	-14762
民安	-14763
满腔	-14764
点起	-14765
留意	-14766
知影	-14767
硕果	-14768
秒针	-14769
结冰	-14770
荷塘	-14771
认同	-14772
让这	-14773
谈情	-14774
边际	-14775
闹市	-14776
黄叶	-14777
▁一日	-14778
▁不须	-14779
▁压抑	-14780
▁小鸟	-14781
▁彼岸	-14782
▁我站	-14783
▁抛弃	-14784
▁滴答	-14785
▁细细	-14786
▁金色	-14787
▁骑着	-14788
不了我	-14789
不甘心	-14790
也不愿	-14791
会有人	-14792
凭什么	-14793
午夜的	-14794
因为爱	-14795
守护着	-14796
幸福吗	-14797
心上人	-14798
气洋洋	-14799
看你的	-14800
累不累	-14801
▁凭什么	-14802
▁原来爱	-14803
▁在一个	-14804
▁我讨厌	-14805
▁我问你	-14806
▁经历过	-14807
风雨同舟	-14808
▁伤痕累累	-14809
▁在你面前	-14810
▁年复一年	-14811
▁爱你爱的	-14812
▁劳	-14813
▁川	-14814
▁摔	-14815
▁顾	-14816
丁香	-14817
七月	-14818
丰碑	-14819
之歌	-14820
交响	-14821
冬雪	-14822
化解	-14823
原是	-14824
只爱	-14825
呀转	-14826
哼唱	-14827
喇叭	-14828
奔走	-14829
对月	-14830
尚有	-14831
得开	-14832
心会	-14833
思夜	-14834
戏水	-14835
换取	-14836
残月	-14837
流放	-14838
清早	-14839
爬起	-14840
甘露	-14841
留念	-14842
的等	-14843
苦闷	-14844
蝶儿	-14845
轻舟	-14846
▁不堪	-14847
▁久违	-14848
▁你一	-14849
▁地上	-14850
▁松开	-14851
▁水中	-14852
▁满足	-14853
▁王子	-14854
▁美妙	-14855
▁美的	-14856
▁认识	-14857
到远方	-14858
同陌路	-14859
向东流	-14860
岁月中	-14861
已走远	-14862
往下流	-14863
思乱想	-14864
无牵挂	-14865
的场景	-14866
的河流	-14867
睡着了	-14868
紫千红	-14869
背后的	-14870
谁能够	-14871
▁all	-14872
▁何必再	-14873
▁你站在	-14874
▁充满了	-14875
▁冬天的	-14876
▁哦哦哦	-14877
▁心碎了	-14878
▁我要用	-14879
▁是时候	-14880
▁相信你	-14881
▁那是一	-14882
有你陪伴	-14883
莫名其妙	-14884
▁如果你还	-14885
▁新的一年	-14886
▁滴答滴答	-14887
▁那是我的	-14888
遥远的距离	-14889
▁佢	-14890
▁利	-14891
▁咸	-14892
▁暂	-14893
▁梨	-14894
▁甲	-14895
上学	-14896
仍未	-14897
从你	-14898
停驻	-14899
傻了	-14900
儿啊	-14901
冲天	-14902
刻画	-14903
又怕	-14904
含笑	-14905
哭吧	-14906
在唱	-14907
在想	-14908
奔赴	-14909
如酒	-14910
家常	-14911
山巅	-14912
平原	-14913
并未	-14914
意气	-14915
成群	-14916
我像	-14917
拥入	-14918
整片	-14919
水也	-14920
满堂	-14921
灼伤	-14922
画笔	-14923
白费	-14924
相衬	-14925
碰碰	-14926
私语	-14927
给人	-14928
羊羊	-14929
警告	-14930
警察	-14931
足印	-14932
迷信	-14933
途上	-14934
静好	-14935
预期	-14936
骄阳	-14937
ife	-14938
▁一面	-14939
▁仿似	-14940
▁伤了	-14941
▁关心	-14942
▁初次	-14943
▁却总	-14944
▁双眼	-14945
▁如像	-14946
▁拯救	-14947
▁旧时	-14948
▁看尽	-14949
▁纯洁	-14950
▁颤抖	-14951
不住的	-14952
你心中	-14953
别回头	-14954
双双飞	-14955
告别了	-14956
在草原	-14957
天注定	-14958
拼命的	-14959
数星星	-14960
有个家	-14961
望着天	-14962
期待着	-14963
没意义	-14964
熄灭了	-14965
的尘埃	-14966
真爱的	-14967
红玫瑰	-14968
说太多	-14969
▁不甘心	-14970
▁总觉得	-14971
▁我们来	-14972
▁既然你	-14973
▁许多年	-14974
▁谁让我	-14975
不再爱我	-14976
分分秒秒	-14977
回不去了	-14978
美好时光	-14979
▁不管明天	-14980
▁如果我能	-14981
▁我会为你	-14982
▁爱恨情仇	-14983
▁陪你一起	-14984
▁你还记得吗	-14985
▁吼	-14986
▁苗	-14987
▁铜	-14988
争执	-14989
勾起	-14990
去说	-14991
叮咚	-14992
后人	-14993
哭声	-14994
城里	-14995
天命	-14996
婚姻	-14997
守住	-14998
干嘛	-14999
干枯	-15000
弧线	-15001
怪谁	-15002
打工	-15003
月夜	-15004
熘走	-15005
燃亮	-15006
的真	-15007
笙歌	-15008
蛋糕	-15009
诗歌	-15010
过这	-15011
还剩	-15012
那双	-15013
骆驼	-15014
高速	-15015
▁伤透	-15016
▁光芒	-15017
▁同学	-15018
▁容颜	-15019
▁彩云	-15020
▁心的	-15021
▁望断	-15022
▁路灯	-15023
▁踏过	-15024
▁辛苦	-15025
▁雨天	-15026
不及待	-15027
了许多	-15028
冷清清	-15029
到明天	-15030
发生过	-15031
哭红了	-15032
在此刻	-15033
很容易	-15034
有多高	-15035
朋好友	-15036
的胸怀	-15037
过的梦	-15038
风一样	-15039
▁不一样	-15040
▁可知道	-15041
▁我们却	-15042
▁我仿佛	-15043
▁我的天	-15044
▁我轻轻	-15045
▁拥抱你	-15046
▁永恒的	-15047
▁难道说	-15048
我们还是	-15049
相信自己	-15050
看到你的	-15051
▁我不明白	-15052
▁我们携手	-15053
▁我最爱的	-15054
▁我爱你的	-15055
▁爱情没有	-15056
在我心里面	-15057
温暖的怀抱	-15058
▁富	-15059
乞讨	-15060
亮起	-15061
仇恨	-15062
倾斜	-15063
养大	-15064
别太	-15065
千载	-15066
单调	-15067
发梦	-15068
向北	-15069
善感	-15070
地为	-15071
墙角	-15072
嫣红	-15073
心不	-15074
心血	-15075
昏昏	-15076
是情	-15077
有他	-15078
汪洋	-15079
消耗	-15080
淋雨	-15081
清脆	-15082
看海	-15083
眼帘	-15084
窗户	-15085
立场	-15086
竞赛	-15087
简讯	-15088
红唇	-15089
缺憾	-15090
羊群	-15091
翻越	-15092
而不	-15093
肮脏	-15094
荷花	-15095
衣襟	-15096
记着	-15097
践踏	-15098
身处	-15099
透彻	-15100
难关	-15101
靠你	-15102
▁GO	-15103
▁ye	-15104
▁云朵	-15105
▁你很	-15106
▁佳人	-15107
▁各种	-15108
▁名利	-15109
▁嘲笑	-15110
▁嘿呀	-15111
▁少了	-15112
▁并非	-15113
▁当做	-15114
▁枯萎	-15115
▁梦的	-15116
▁相对	-15117
▁眼眶	-15118
▁老爸	-15119
▁脑袋	-15120
▁若然	-15121
▁送给	-15122
一条河	-15123
不害怕	-15124
你的小	-15125
天喜地	-15126
太爱你	-15127
带回家	-15128
无声息	-15129
有你才	-15130
深呼吸	-15131
痴心的	-15132
的伤心	-15133
的片段	-15134
这感觉	-15135
酒一杯	-15136
▁why	-15137
▁不放弃	-15138
▁你留下	-15139
▁往日的	-15140
▁爱情像	-15141
▁要不是	-15142
你所有的	-15143
啪啪啪啪	-15144
我的伤悲	-15145
被你占据	-15146
让我的心	-15147
▁你的幸福	-15148
▁如今的你	-15149
▁平平淡淡	-15150
▁我才发现	-15151
▁爱过的人	-15152
▁自从那天	-15153
熟悉的旋律	-15154
▁昂	-15155
▁洛	-15156
一股	-15157
不值	-15158
与人	-15159
买卖	-15160
亘古	-15161
出头	-15162
刮风	-15163
半边	-15164
向了	-15165
吵架	-15166
它是	-15167
容纳	-15168
寒暄	-15169
就想	-15170
撒野	-15171
救主	-15172
方寸	-15173
日如	-15174
浮躁	-15175
的猫	-15176
磕磕	-15177
笔记	-15178
自寻	-15179
那只	-15180
随我	-15181
▁wu	-15182
▁不惧	-15183
▁别用	-15184
▁听那	-15185
▁在最	-15186
▁往前	-15187
▁打破	-15188
▁爱着	-15189
▁牡丹	-15190
▁莫让	-15191
▁要做	-15192
▁要用	-15193
写满了	-15194
回到那	-15195
在夜空	-15196
在等候	-15197
天涯路	-15198
容不下	-15199
我们就	-15200
我的错	-15201
欢喜喜	-15202
的邂逅	-15203
靠在我	-15204
▁带你去	-15205
▁我们已	-15206
▁看到了	-15207
▁这世间	-15208
▁那一段	-15209
嘻嘻哈哈	-15210
没有关系	-15211
犯下的错	-15212
等你回来	-15213
▁无忧无虑	-15214
▁是是非非	-15215
▁魂牵梦绕	-15216
许下的承诺	-15217
▁易	-15218
万众	-15219
中了	-15220
九九	-15221
你听	-15222
反省	-15223
只求	-15224
太笨	-15225
屁股	-15226
强壮	-15227
怀着	-15228
昌盛	-15229
暗涌	-15230
最亲	-15231
桥下	-15232
纵容	-15233
背弃	-15234
草木	-15235
路转	-15236
逆行	-15237
▁不悔	-15238
▁也在	-15239
▁周围	-15240
▁开口	-15241
▁摆脱	-15242
▁旧梦	-15243
▁望见	-15244
▁正义	-15245
▁流言	-15246
▁电视	-15247
一点爱	-15248
不公平	-15249
也是种	-15250
好姑娘	-15251
尽情地	-15252
我心田	-15253
的表演	-15254
的风霜	-15255
相爱过	-15256
要如何	-15257
让我再	-15258
说晚安	-15259
这一路	-15260
这爱的	-15261
▁一个个	-15262
▁人生的	-15263
▁你是那	-15264
▁内心的	-15265
▁好男人	-15266
▁学不会	-15267
▁每一分	-15268
▁站起来	-15269
只有一个	-15270
属于自己	-15271
我也愿意	-15272
滴滴答答	-15273
那一瞬间	-15274
▁也许你会	-15275
▁破碎的心	-15276
▁红红火火	-15277
▁那是我们	-15278
拉着你的手	-15279
美好的明天	-15280
▁哀	-15281
▁夹	-15282
▁探	-15283
▁揭	-15284
▁顶	-15285
之处	-15286
了也	-15287
他朝	-15288
做饭	-15289
出那	-15290
勇士	-15291
可再	-15292
埋伏	-15293
奉上	-15294
奋进	-15295
拂面	-15296
挡风	-15297
摧残	-15298
断续	-15299
晚空	-15300
污染	-15301
盼着	-15302
笨拙	-15303
荡气	-15304
诗行	-15305
走去	-15306
趁早	-15307
都像	-15308
风化	-15309
eli	-15310
ree	-15311
▁th	-15312
▁亲手	-15313
▁十七	-15314
▁唯愿	-15315
▁对面	-15316
▁忽略	-15317
▁掌声	-15318
▁演绎	-15319
▁胜过	-15320
▁身旁	-15321
打湿了	-15322
找不回	-15323
数不清	-15324
时间去	-15325
是那样	-15326
的向往	-15327
的香味	-15328
眨眼睛	-15329
老妈妈	-15330
错过你	-15331
风吹起	-15332
▁一片片	-15333
▁人生路	-15334
▁你别再	-15335
▁你走后	-15336
▁出现在	-15337
▁我也是	-15338
▁我仍然	-15339
▁我假装	-15340
▁所以你	-15341
▁无数个	-15342
▁是真的	-15343
不在身边	-15344
你的目光	-15345
对你说声	-15346
怎么能够	-15347
扑朔迷离	-15348
淅淅沥沥	-15349
炎黄子孙	-15350
现在的你	-15351
▁一字一句	-15352
▁受伤的心	-15353
▁请不要再	-15354
心中的梦想	-15355
▁天上的星星	-15356
▁乎	-15357
▁嘴	-15358
▁替	-15359
▁格	-15360
▁涌	-15361
▁诶	-15362
与爱	-15363
两鬓	-15364
也该	-15365
何须	-15366
关爱	-15367
即刻	-15368
发泄	-15369
发疯	-15370
同一	-15371
哭红	-15372
复制	-15373
尝过	-15374
志向	-15375
情思	-15376
抱我	-15377
时辰	-15378
是这	-15379
暗中	-15380
有新	-15381
橄榄	-15382
气力	-15383
涂鸦	-15384
的名	-15385
真切	-15386
管我	-15387
纯白	-15388
自如	-15389
舞姿	-15390
走啊	-15391
阴谋	-15392
马儿	-15393
ody	-15394
▁凝视	-15395
▁外婆	-15396
▁多彩	-15397
▁就想	-15398
▁心内	-15399
▁照片	-15400
▁社会	-15401
▁谁没	-15402
▁迎风	-15403
▁错误	-15404
▁雨点	-15405
不听话	-15406
人海里	-15407
令我心	-15408
回故乡	-15409
带来的	-15410
我心意	-15411
最难忘	-15412
有力量	-15413
来到了	-15414
杯中酒	-15415
流的泪	-15416
爱一场	-15417
的情侣	-15418
的身躯	-15419
装满了	-15420
要什么	-15421
那些年	-15422
都需要	-15423
飞起来	-15424
▁你也许	-15425
▁你在哪	-15426
▁停留在	-15427
▁叫一声	-15428
▁回不到	-15429
▁我的痛	-15430
▁我说我	-15431
▁萤火虫	-15432
▁跳起来	-15433
▁需要你	-15434
我们彼此	-15435
梦中醒来	-15436
没有意义	-15437
萍水相逢	-15438
▁每一个人	-15439
▁永永远远	-15440
▁顶天立地	-15441
幸福的生活	-15442
心爱的姑娘	-15443
美丽的地方	-15444
▁如果没有你	-15445
▁谢谢你给我	-15446
▁猪	-15447
了命	-15448
介绍	-15449
传统	-15450
你只	-15451
再美	-15452
却还	-15453
反抗	-15454
向那	-15455
在前	-15456
天轮	-15457
好汉	-15458
容貌	-15459
庆贺	-15460
开水	-15461
当空	-15462
很痛	-15463
新春	-15464
无望	-15465
早安	-15466
是有	-15467
未眠	-15468
楚楚	-15469
着梦	-15470
立刻	-15471
罢了	-15472
肆虐	-15473
胆量	-15474
营养	-15475
西山	-15476
起手	-15477
连接	-15478
退去	-15479
霸占	-15480
▁也别	-15481
▁初心	-15482
▁别离	-15483
▁又在	-15484
▁复兴	-15485
▁尘埃	-15486
▁早该	-15487
▁星辰	-15488
▁闪亮	-15489
▁问问	-15490
▁陪着	-15491
▁风月	-15492
不分手	-15493
之间的	-15494
也变得	-15495
你的话	-15496
依旧在	-15497
勇敢地	-15498
千万个	-15499
向前行	-15500
和万水	-15501
就是个	-15502
已不见	-15503
拥有了	-15504
收不回	-15505
无药可	-15506
明月光	-15507
永不会	-15508
爱的心	-15509
的开始	-15510
的沧桑	-15511
的脸上	-15512
的自我	-15513
的诱惑	-15514
着了迷	-15515
知后觉	-15516
言自语	-15517
▁不要怕	-15518
▁但愿你	-15519
▁你始终	-15520
▁分手后	-15521
▁怎么了	-15522
▁我会在	-15523
▁我时常	-15524
▁我要把	-15525
▁我走过	-15526
▁放下了	-15527
▁漫天的	-15528
▁爱就像	-15529
▁爱我的	-15530
▁等着我	-15531
▁经不起	-15532
▁说一声	-15533
▁这一天	-15534
匆匆忙忙	-15535
另一个人	-15536
愿不愿意	-15537
无所畏惧	-15538
蠢蠢欲动	-15539
顺其自然	-15540
▁away	-15541
▁海角天涯	-15542
▁直到最后	-15543
▁纷纷扰扰	-15544
▁请告诉我	-15545
一去不回头	-15546
▁凌	-15547
▁寸	-15548
▁晓	-15549
不减	-15550
两年	-15551
乐意	-15552
产生	-15553
人自	-15554
催人	-15555
协力	-15556
去我	-15557
发香	-15558
呆呆	-15559
地裂	-15560
城的	-15561
大财	-15562
嬉笑	-15563
孤灯	-15564
家国	-15565
幻变	-15566
座位	-15567
志愿	-15568
恨晚	-15569
扬鞭	-15570
拥你	-15571
收敛	-15572
教训	-15573
无端	-15574
最懂	-15575
游去	-15576
滴泪	-15577
猜透	-15578
玩意	-15579
琥珀	-15580
精采	-15581
经验	-15582
绽开	-15583
腾的	-15584
苦累	-15585
逃开	-15586
里行	-15587
重拾	-15588
飘浮	-15589
▁事业	-15590
▁但这	-15591
▁勾勒	-15592
▁叫做	-15593
▁就把	-15594
▁循环	-15595
▁情义	-15596
▁想来	-15597
▁拍拍	-15598
▁提笔	-15599
▁擦肩	-15600
▁牵着	-15601
▁背起	-15602
▁西风	-15603
▁重温	-15604
一声声	-15605
一片云	-15606
一直走	-15607
万年长	-15608
不认输	-15609
了一遍	-15610
他们的	-15611
任何的	-15612
值得我	-15613
到了吗	-15614
动了心	-15615
受伤的	-15616
天和地	-15617
对爱情	-15618
干什么	-15619
放下了	-15620
故乡的	-15621
时光的	-15622
满天飞	-15623
的守候	-15624
起缘灭	-15625
雨后的	-15626
▁一起走	-15627
▁你选择	-15628
▁只要我	-15629
▁君不见	-15630
▁当所有	-15631
▁我也有	-15632
▁无人能	-15633
▁那里的	-15634
一场游戏	-15635
不会让你	-15636
不能回头	-15637
受伤的心	-15638
受过的伤	-15639
成为过去	-15640
我们的心	-15641
放在心上	-15642
是一家人	-15643
是我唯一	-15644
真的可以	-15645
神魂颠倒	-15646
▁一望无际	-15647
▁为了什么	-15648
▁五星红旗	-15649
▁我一定要	-15650
▁时过境迁	-15651
我们的过去	-15652
走到了尽头	-15653
▁dream	-15654
▁卸	-15655
▁娇	-15656
▁振	-15657
▁播	-15658
▁田	-15659
何惧	-15660
作业	-15661
你总	-15662
却难	-15663
口气	-15664
呱呱	-15665
唱和	-15666
地转	-15667
女王	-15668
折断	-15669
拉开	-15670
换新	-15671
方休	-15672
无非	-15673
望断	-15674
楞楞	-15675
武装	-15676
浪涛	-15677
演员	-15678
琴键	-15679
男生	-15680
的茶	-15681
碌碌	-15682
禁忌	-15683
老友	-15684
补救	-15685
预知	-15686
风花	-15687
▁不算	-15688
▁传承	-15689
▁几许	-15690
▁分别	-15691
▁我本	-15692
▁抚慰	-15693
▁放任	-15694
▁昂首	-15695
▁暧昧	-15696
▁欢歌	-15697
▁活得	-15698
▁清晰	-15699
▁终会	-15700
▁隐约	-15701
一个小	-15702
不愿再	-15703
也不敢	-15704
了谁的	-15705
会更加	-15706
和希望	-15707
好日子	-15708
就开始	-15709
恩怨怨	-15710
我与你	-15711
我是你	-15712
注定是	-15713
的哭泣	-15714
的心酸	-15715
那一份	-15716
那一句	-15717
那年的	-15718
▁听不到	-15719
▁大大的	-15720
▁所以才	-15721
▁换来的	-15722
▁暖暖的	-15723
▁简单的	-15724
▁而我们	-15725
▁谁是谁	-15726
你对我说	-15727
对我的爱	-15728
平平淡淡	-15729
普通朋友	-15730
若无其事	-15731
▁一分一秒	-15732
▁人生难得	-15733
▁如果时光	-15734
▁我的真心	-15735
▁漫漫长路	-15736
▁爱情就像	-15737
▁吟	-15738
▁瘦	-15739
▁致	-15740
丫头	-15741
以赴	-15742
你一	-15743
信号	-15744
共苦	-15745
凭栏	-15746
到死	-15747
却很	-15748
原始	-15749
又想	-15750
及你	-15751
地说	-15752
多长	-15753
尊贵	-15754
怨你	-15755
我怕	-15756
手可	-15757
拿出	-15758
放掉	-15759
来年	-15760
死掉	-15761
疆场	-15762
眼镜	-15763
而出	-15764
耳语	-15765
落单	-15766
落笔	-15767
蝉鸣	-15768
赢得	-15769
述说	-15770
隐形	-15771
零落	-15772
高峰	-15773
▁你讲	-15774
▁冬去	-15775
▁别太	-15776
▁华丽	-15777
▁占据	-15778
▁多了	-15779
▁富贵	-15780
▁情侣	-15781
▁此去	-15782
▁求求	-15783
▁白雪	-15784
▁诚实	-15785
▁谈情	-15786
▁随意	-15787
实在在	-15788
实在太	-15789
心无愧	-15790
燃烧着	-15791
玻璃窗	-15792
的心意	-15793
的风采	-15794
藏心底	-15795
躲不过	-15796
霓虹灯	-15797
▁不一定	-15798
▁却总是	-15799
▁天亮了	-15800
▁我付出	-15801
▁我怀念	-15802
▁我想念	-15803
▁我确定	-15804
▁手拉手	-15805
▁把回忆	-15806
▁梦醒了	-15807
▁生命里	-15808
▁紧紧的	-15809
▁经历了	-15810
一片空白	-15811
心爱的人	-15812
深爱着你	-15813
难舍难分	-15814
▁你说你要	-15815
▁姑娘姑娘	-15816
▁我也愿意	-15817
▁我们相遇	-15818
▁我和你的	-15819
▁请原谅我	-15820
▁掉	-15821
▁梁	-15822
▁里	-15823
一转	-15824
上苍	-15825
不痒	-15826
之王	-15827
叔叔	-15828
变更	-15829
合衬	-15830
困倦	-15831
在她	-15832
在转	-15833
太真	-15834
如其	-15835
如痴	-15836
对了	-15837
小妹	-15838
就叫	-15839
就已	-15840
就错	-15841
开车	-15842
归属	-15843
把戏	-15844
时机	-15845
沉浸	-15846
游离	-15847
百万	-15848
的纸	-15849
看懂	-15850
空隙	-15851
能有	-15852
节目	-15853
菠萝	-15854
落雨	-15855
裙子	-15856
让步	-15857
过山	-15858
酥油	-15859
金刚	-15860
隔离	-15861
▁一秒	-15862
▁各有	-15863
▁旅途	-15864
▁爱不	-15865
▁知己	-15866
▁空中	-15867
▁纵是	-15868
▁解开	-15869
▁这首	-15870
▁雪山	-15871
一座城	-15872
不过气	-15873
他的手	-15874
你可曾	-15875
在午夜	-15876
在手里	-15877
在街头	-15878
对你讲	-15879
已经是	-15880
愿为你	-15881
我曾经	-15882
无聊的	-15883
每一寸	-15884
的云彩	-15885
的光线	-15886
的战场	-15887
的欲望	-15888
耶和华	-15889
聊聊天	-15890
让幸福	-15891
gain	-15892
▁你突然	-15893
▁你这个	-15894
▁只有那	-15895
▁哪里有	-15896
▁真的好	-15897
▁童年的	-15898
▁诉说着	-15899
▁谁还在	-15900
万语千言	-15901
回到原点	-15902
我的心底	-15903
细水长流	-15904
这一辈子	-15905
那么简单	-15906
释迦牟尼	-15907
▁大街小巷	-15908
▁我要给你	-15909
真的不容易	-15910
▁为什么你要	-15911
te	-15912
▁慈	-15913
▁步	-15914
▁渔	-15915
▁贵	-15916
为它	-15917
争辩	-15918
亦是	-15919
亲我	-15920
传遍	-15921
做完	-15922
凄凄	-15923
创业	-15924
可靠	-15925
合十	-15926
呜咽	-15927
和睦	-15928
哎呦	-15929
嘀嘀	-15930
坚韧	-15931
复原	-15932
导航	-15933
差点	-15934
帮忙	-15935
情相	-15936
斗争	-15937
机场	-15938
柠檬	-15939
水乡	-15940
煽情	-15941
独坐	-15942
胡杨	-15943
自控	-15944
越痛	-15945
郎呀	-15946
防线	-15947
隔绝	-15948
饭菜	-15949
▁一根	-15950
▁奇怪	-15951
▁奶奶	-15952
▁干杯	-15953
▁春秋	-15954
▁看来	-15955
▁红包	-15956
▁路途	-15957
不远处	-15958
世界都	-15959
你身旁	-15960
再回首	-15961
又想起	-15962
喝醉了	-15963
大地大	-15964
得太深	-15965
想不起	-15966
比天高	-15967
炽热的	-15968
爱情是	-15969
甜甜的	-15970
的小路	-15971
的海岸	-15972
祖国的	-15973
蓝天下	-15974
路过的	-15975
错谁对	-15976
长相依	-15977
▁伟大的	-15978
▁倒不如	-15979
▁我慢慢	-15980
▁或许是	-15981
▁是否会	-15982
▁没有我	-15983
▁用微笑	-15984
▁这时候	-15985
一片蓝天	-15986
为你哭泣	-15987
为你祈祷	-15988
再也不见	-15989
变成一种	-15990
唱这首歌	-15991
天地之间	-15992
希望你能	-15993
幸福的人	-15994
是幸福的	-15995
长相厮守	-15996
▁just	-15997
▁我的心事	-15998
▁独自一人	-15999
▁直到现在	-16000
美好的时光	-16001
▁特	-16002
▁震	-16003
三天	-16004
丰盛	-16005
伤神	-16006
作罢	-16007
你很	-16008
偏执	-16009
历尽	-16010
取舍	-16011
商量	-16012
圆圈	-16013
地的	-16014
嫁给	-16015
性命	-16016
成的	-16017
擦擦	-16018
无求	-16019
旧人	-16020
朝气	-16021
极乐	-16022
柔弱	-16023
炎夏	-16024
献出	-16025
美味	-16026
苦等	-16027
起身	-16028
送到	-16029
长成	-16030
青石	-16031
风雅	-16032
餐厅	-16033
香飘	-16034
鹊桥	-16035
▁Go	-16036
▁倒数	-16037
▁友情	-16038
▁古道	-16039
▁呵护	-16040
▁头顶	-16041
▁干脆	-16042
▁新鲜	-16043
▁智慧	-16044
▁最是	-16045
▁梦已	-16046
▁牺牲	-16047
▁真相	-16048
▁自问	-16049
▁身上	-16050
▁那次	-16051
▁飘散	-16052
一挥手	-16053
不了口	-16054
个痛快	-16055
也无悔	-16056
了爱的	-16057
在他乡	-16058
家门口	-16059
并不多	-16060
放过我	-16061
玩游戏	-16062
的终点	-16063
的过程	-16064
的都市	-16065
赤裸裸	-16066
那个他	-16067
▁别以为	-16068
▁可现在	-16069
▁想给你	-16070
▁我还会	-16071
▁来让我	-16072
全部的爱	-16073
我的名字	-16074
我的地方	-16075
无法改变	-16076
无言以对	-16077
来来去去	-16078
肩并着肩	-16079
许下心愿	-16080
请你不要	-16081
走到一起	-16082
▁今天的我	-16083
▁在你离开	-16084
▁在这一刻	-16085
▁好不容易	-16086
▁我们只是	-16087
▁让我独自	-16088
▁陪我一起	-16089
elieve	-16090
▁2	-16091
▁右	-16092
一举	-16093
一枚	-16094
与天	-16095
为着	-16096
亲你	-16097
保管	-16098
初上	-16099
去路	-16100
可知	-16101
哭的	-16102
唱过	-16103
地藏	-16104
坟墓	-16105
多次	-16106
好心	-16107
如来	-16108
定的	-16109
就似	-16110
峰回	-16111
差距	-16112
帅哥	-16113
干坤	-16114
幽梦	-16115
应付	-16116
弄丢	-16117
心爱	-16118
我把	-16119
所困	-16120
抑郁	-16121
操控	-16122
无量	-16123
气质	-16124
洗净	-16125
烟圈	-16126
热热	-16127
皓月	-16128
看花	-16129
约好	-16130
老公	-16131
自受	-16132
行的	-16133
课堂	-16134
谁谁	-16135
还原	-16136
还很	-16137
项链	-16138
▁为她	-16139
▁事实	-16140
▁听过	-16141
▁吸引	-16142
▁堆积	-16143
▁好象	-16144
▁得失	-16145
▁情丝	-16146
▁想我	-16147
▁挂在	-16148
▁满城	-16149
▁相偎	-16150
▁老板	-16151
▁背对	-16152
▁跳舞	-16153
不等于	-16154
伤了心	-16155
想象中	-16156
某一个	-16157
流下的	-16158
留下我	-16159
的细雨	-16160
紧紧地	-16161
行千里	-16162
言又止	-16163
输给了	-16164
都随风	-16165
▁只因你	-16166
▁只是想	-16167
▁唱起来	-16168
▁多少的	-16169
▁把幸福	-16170
▁用你的	-16171
▁问世间	-16172
不再彷徨	-16173
你的感觉	-16174
充满希望	-16175
我的心扉	-16176
来的时候	-16177
的那首歌	-16178
过往云烟	-16179
▁你是否能	-16180
▁关于你的	-16181
▁叫我如何	-16182
▁如果今生	-16183
▁怎么能够	-16184
▁我们还是	-16185
▁我要带你	-16186
世界的尽头	-16187
为你唱首歌	-16188
着你的名字	-16189
ei	-16190
▁虫	-16191
▁视	-16192
一腔	-16193
余香	-16194
使人	-16195
借我	-16196
做回	-16197
写意	-16198
去到	-16199
去走	-16200
否认	-16201
哺育	-16202
壮阔	-16203
大事	-16204
如钩	-16205
威风	-16206
嫁妆	-16207
嫌我	-16208
小屋	-16209
已然	-16210
平浪	-16211
广州	-16212
征战	-16213
恒久	-16214
惊怕	-16215
意念	-16216
我总	-16217
掌控	-16218
揭晓	-16219
断线	-16220
旦旦	-16221
望月	-16222
武功	-16223
段落	-16224
消化	-16225
犹在	-16226
百孔	-16227
的双	-16228
的流	-16229
离歌	-16230
稀薄	-16231
行为	-16232
讲话	-16233
谈何	-16234
重蹈	-16235
黄泉	-16236
eed	-16237
▁争吵	-16238
▁却只	-16239
▁只见	-16240
▁娃娃	-16241
▁挑战	-16242
▁掩盖	-16243
▁深藏	-16244
▁爱也	-16245
不代表	-16246
中的我	-16247
人群里	-16248
在改变	-16249
太残忍	-16250
就分手	-16251
成双对	-16252
更爱你	-16253
比我好	-16254
用真心	-16255
的传奇	-16256
的家园	-16257
的心脏	-16258
的想你	-16259
辛苦苦	-16260
还剩下	-16261
那么好	-16262
陪你到	-16263
颦一笑	-16264
▁你总说	-16265
▁我们爱	-16266
▁我学会	-16267
▁没你的	-16268
▁请别再	-16269
▁醒来后	-16270
一如既往	-16271
不再孤单	-16272
你在身旁	-16273
只有自己	-16274
浪费时间	-16275
给我安慰	-16276
该怎么做	-16277
陪你到老	-16278
▁一年一年	-16279
▁如果你不	-16280
▁往事如烟	-16281
▁是不是你	-16282
▁曾经的你	-16283
▁没有理由	-16284
▁蓝天白云	-16285
▁阿哥阿妹	-16286
再见你一面	-16287
▁你给我的爱	-16288
▁这就是我的	-16289
▁攀	-16290
▁泛	-16291
▁鸡	-16292
一岁	-16293
之大	-16294
亦能	-16295
人会	-16296
侥幸	-16297
倒海	-16298
催促	-16299
冬眠	-16300
刀剑	-16301
参加	-16302
吝啬	-16303
呼应	-16304
咦呀	-16305
地址	-16306
完结	-16307
就让	-16308
居住	-16309
庄稼	-16310
恋着	-16311
戴着	-16312
方便	-16313
最是	-16314
每分	-16315
现代	-16316
生锈	-16317
留的	-16318
白鸽	-16319
皱眉	-16320
盛宴	-16321
相册	-16322
眼波	-16323
要来	-16324
越久	-16325
那位	-16326
默念	-16327
▁同时	-16328
▁她是	-16329
▁晚上	-16330
▁每夜	-16331
▁用情	-16332
▁赶走	-16333
▁迈开	-16334
不起来	-16335
也不说	-16336
也许是	-16337
从这里	-16338
再多的	-16339
我早已	-16340
拉着手	-16341
是最好	-16342
有希望	-16343
爱一次	-16344
爱与恨	-16345
的人间	-16346
的惆怅	-16347
的笑颜	-16348
的轮回	-16349
置身事	-16350
▁eve	-16351
▁一首歌	-16352
▁在路上	-16353
▁是否你	-16354
▁有谁会	-16355
▁说不清	-16356
▁这一世	-16357
千里万里	-16358
坚持到底	-16359
安慰自己	-16360
的城市里	-16361
记忆中的	-16362
这一首歌	-16363
那么美丽	-16364
▁五湖四海	-16365
▁你有你的	-16366
▁只想和你	-16367
▁如果你要	-16368
美丽的姑娘	-16369
▁吾	-16370
▁坦	-16371
▁堆	-16372
▁德	-16373
▁托	-16374
▁爆	-16375
▁败	-16376
▁轮	-16377
▁骤	-16378
不惯	-16379
两断	-16380
之夜	-16381
书签	-16382
亦难	-16383
儿的	-16384
几岁	-16385
厨房	-16386
好痛	-16387
守卫	-16388
幽香	-16389
思乡	-16390
惹我	-16391
我知	-16392
拉着	-16393
措手	-16394
早知	-16395
未尽	-16396
本身	-16397
棵树	-16398
没收	-16399
消除	-16400
焦急	-16401
猖狂	-16402
王者	-16403
玩弄	-16404
的冰	-16405
着这	-16406
秀丽	-16407
窥探	-16408
缺乏	-16409
自禁	-16410
转换	-16411
追回	-16412
道上	-16413
重遇	-16414
eel	-16415
end	-16416
▁一幅	-16417
▁交换	-16418
▁失望	-16419
▁奇妙	-16420
▁慈悲	-16421
▁把握	-16422
▁挺起	-16423
▁控制	-16424
▁放松	-16425
▁来时	-16426
▁江水	-16427
▁浮沉	-16428
▁留低	-16429
▁耳朵	-16430
▁进入	-16431
与你的	-16432
了太久	-16433
出一个	-16434
向前进	-16435
在这片	-16436
在雨里	-16437
太想念	-16438
好天气	-16439
守着你	-16440
恋着你	-16441
放弃我	-16442
是一颗	-16443
用心去	-16444
的离别	-16445
的衣裳	-16446
觉得很	-16447
败涂地	-16448
远方的	-16449
陪我走	-16450
▁你从来	-16451
▁到底是	-16452
▁只记得	-16453
▁夜已深	-16454
▁如今已	-16455
▁嫁给我	-16456
▁感觉到	-16457
▁我习惯	-16458
▁我们也	-16459
▁我天天	-16460
▁我常常	-16461
▁昨日的	-16462
▁渐渐的	-16463
▁自以为	-16464
▁谁人能	-16465
▁那一个	-16466
不堪回首	-16467
事与愿违	-16468
好久不见	-16469
意乱情迷	-16470
看我一眼	-16471
说些什么	-16472
转身离开	-16473
遥遥无期	-16474
那么容易	-16475
隐隐作痛	-16476
▁BABY	-16477
▁一个眼神	-16478
▁缘来缘去	-16479
千山和万水	-16480
释迦牟尼佛	-16481
▁专	-16482
▁剧	-16483
▁湿	-16484
七分	-16485
不发	-16486
不吃	-16487
交融	-16488
修炼	-16489
做主	-16490
分飞	-16491
加深	-16492
厮杀	-16493
待你	-16494
心境	-16495
忽现	-16496
患得	-16497
想了	-16498
我未	-16499
换上	-16500
放荡	-16501
整晚	-16502
曲线	-16503
某种	-16504
梦牵	-16505
楼空	-16506
檐下	-16507
欢唿	-16508
欢愉	-16509
欣喜	-16510
欺负	-16511
步调	-16512
泪儿	-16513
留白	-16514
百态	-16515
的旧	-16516
绿了	-16517
老酒	-16518
舞会	-16519
赞歌	-16520
赶紧	-16521
金光	-16522
铅华	-16523
飞天	-16524
ely	-16525
▁一对	-16526
▁划破	-16527
▁山歌	-16528
▁想像	-16529
▁憔悴	-16530
▁明媚	-16531
▁欺骗	-16532
▁离人	-16533
▁美女	-16534
▁良辰	-16535
▁落寞	-16536
▁表情	-16537
▁触碰	-16538
▁谈笑	-16539
▁雨下	-16540
▁飞跃	-16541
不后退	-16542
又过了	-16543
地藏王	-16544
嫁给你	-16545
年某月	-16546
愈来愈	-16547
每天的	-16548
泰民安	-16549
淋湿了	-16550
白日梦	-16551
的城堡	-16552
的长夜	-16553
花一样	-16554
被伤害	-16555
▁不在意	-16556
▁五千年	-16557
▁什么叫	-16558
▁勇敢地	-16559
▁只要有	-16560
▁唯有你	-16561
▁好男儿	-16562
▁就在你	-16563
▁尽情的	-16564
▁幸福就	-16565
▁火红的	-16566
只是一种	-16567
怎样才能	-16568
把你珍惜	-16569
是如此的	-16570
深深的爱	-16571
的每一天	-16572
自作多情	-16573
▁为何总是	-16574
▁你又何必	-16575
▁你的柔情	-16576
▁到底是谁	-16577
▁刻骨铭心	-16578
▁想你想到	-16579
▁我不相信	-16580
▁我们没有	-16581
▁每个夜晚	-16582
▁这个城市	-16583
▁我的好兄弟	-16584
▁曾经的誓言	-16585
▁来来来来来来来	-16586
ch	-16587
▁礼	-16588
一闯	-16589
三餐	-16590
云间	-16591
修补	-16592
十三	-16593
即逝	-16594
变真	-16595
坏坏	-16596
士兵	-16597
失措	-16598
弄人	-16599
患失	-16600
情和	-16601
清茶	-16602
湖泊	-16603
牵肠	-16604
疏离	-16605
的想	-16606
禁锢	-16607
轻烟	-16608
较量	-16609
野蛮	-16610
间断	-16611
阿姨	-16612
震动	-16613
▁之后	-16614
▁今夕	-16615
▁他朝	-16616
▁倒映	-16617
▁只恨	-16618
▁味道	-16619
▁归来	-16620
▁惆怅	-16621
▁戴上	-16622
▁才懂	-16623
▁游子	-16624
▁漂浮	-16625
▁献出	-16626
▁生日	-16627
▁被我	-16628
▁问君	-16629
▁飘落	-16630
伤害你	-16631
和未来	-16632
开玩笑	-16633
怎么也	-16634
总是很	-16635
时间里	-16636
有爱的	-16637
流过泪	-16638
爱的歌	-16639
痛快的	-16640
的完美	-16641
真情意	-16642
自由地	-16643
过自己	-16644
这颗心	-16645
遗忘了	-16646
都不算	-16647
醒过来	-16648
难免会	-16649
麦克风	-16650
▁你我都	-16651
▁别说我	-16652
▁听着你	-16653
▁当初的	-16654
▁我答应	-16655
▁时间在	-16656
▁深情的	-16657
▁爱过你	-16658
▁还可以	-16659
你的味道	-16660
依依不舍	-16661
失魂落魄	-16662
就是你的	-16663
已经足够	-16664
成为我的	-16665
敞开心扉	-16666
让我伤心	-16667
默默承受	-16668
▁义无反顾	-16669
▁从来不曾	-16670
▁你是一个	-16671
▁你曾说过	-16672
▁你的模样	-16673
▁孤孤单单	-16674
▁幸福生活	-16675
▁妈妈呀妈妈	-16676
▁谢谢你让我	-16677
▁扛	-16678
一字	-16679
了他	-16680
事无	-16681
你莫	-16682
反驳	-16683
叱咤	-16684
回复	-16685
在飘	-16686
地面	-16687
实践	-16688
审判	-16689
山头	-16690
常开	-16691
开门	-16692
悔改	-16693
情是	-16694
意冷	-16695
扑向	-16696
挺拔	-16697
欲坠	-16698
沼泽	-16699
疲劳	-16700
的唇	-16701
睡眠	-16702
窈窕	-16703
经营	-16704
落满	-16705
诗人	-16706
踌躇	-16707
车窗	-16708
进取	-16709
远望	-16710
颤动	-16711
香槟	-16712
▁一方	-16713
▁不枉	-16714
▁不止	-16715
▁人世	-16716
▁你心	-16717
▁前途	-16718
▁含泪	-16719
▁唱到	-16720
▁我知	-16721
▁我越	-16722
▁换你	-16723
▁放声	-16724
▁无名	-16725
▁未能	-16726
▁正是	-16727
▁比翼	-16728
▁沉淀	-16729
▁没钱	-16730
▁确定	-16731
▁菩萨	-16732
▁说要	-16733
▁谁叫	-16734
▁都市	-16735
一些些	-16736
一扇门	-16737
仅有的	-16738
伴随着	-16739
多爱你	-16740
情感的	-16741
把过去	-16742
无所有	-16743
是心非	-16744
有感觉	-16745
点点头	-16746
甘共苦	-16747
的关怀	-16748
的精神	-16749
给我个	-16750
绝情的	-16751
闯天下	-16752
▁人群中	-16753
▁又有谁	-16754
▁小妹妹	-16755
▁幻想着	-16756
▁才懂得	-16757
▁最真的	-16758
▁用真心	-16759
▁老百姓	-16760
▁送给你	-16761
▁陪伴你	-16762
▁随着风	-16763
变得更加	-16764
开花结果	-16765
我亲爱的	-16766
才是我的	-16767
找不到你	-16768
时过境迁	-16769
的那一个	-16770
虚情假意	-16771
觉得自己	-16772
过的地方	-16773
连在一起	-16774
▁你告诉我	-16775
▁如果还有	-16776
▁知不知道	-16777
▁等你回来	-16778
放开我的手	-16779
最美的回忆	-16780
onight	-16781
▁你是我的唯一	-16782
AH	-16783
▁割	-16784
▁吴	-16785
▁帮	-16786
▁担	-16787
▁泡	-16788
▁突	-16789
一吹	-16790
一套	-16791
九霄	-16792
争斗	-16793
低语	-16794
克制	-16795
创作	-16796
剔透	-16797
奴隶	-16798
存的	-16799
就去	-16800
山中	-16801
带回	-16802
忘川	-16803
情伤	-16804
戏弄	-16805
才叫	-16806
描淡	-16807
旅人	-16808
月老	-16809
本能	-16810
残骸	-16811
气候	-16812
清净	-16813
科技	-16814
脸红	-16815
自动	-16816
落差	-16817
血肉	-16818
谜题	-16819
还你	-16820
造成	-16821
难辨	-16822
▁句句	-16823
▁圆圆	-16824
▁小伙	-16825
▁我以	-16826
▁抓紧	-16827
▁收藏	-16828
▁目标	-16829
▁非常	-16830
▁飞机	-16831
▁驰骋	-16832
一张脸	-16833
会实现	-16834
变了心	-16835
奔向你	-16836
平安安	-16837
平浪静	-16838
更寂寞	-16839
有多痛	-16840
爱着谁	-16841
现在的	-16842
的言语	-16843
藏不住	-16844
调雨顺	-16845
这一秒	-16846
黑夜的	-16847
▁cry	-16848
▁你却说	-16849
▁我为何	-16850
▁我好像	-16851
▁我说过	-16852
▁戒不掉	-16853
▁来来回	-16854
▁脑海中	-16855
▁让思念	-16856
▁这一个	-16857
不能忘记	-16858
了这杯酒	-16859
勇敢面对	-16860
放不下你	-16861
物是人非	-16862
的人是我	-16863
▁你给了我	-16864
▁如果爱是	-16865
▁每时每刻	-16866
▁雨过天晴	-16867
在你的怀里	-16868
让我一个人	-16869
▁一次又一次	-16870
ud	-16871
▁拾	-16872
▁皇	-16873
▁筑	-16874
▁翠	-16875
也像	-16876
再高	-16877
勋章	-16878
化了	-16879
华章	-16880
单薄	-16881
取闹	-16882
同步	-16883
啊哈	-16884
大路	-16885
寒意	-16886
就如	-16887
尽在	-16888
弹指	-16889
心就	-16890
您的	-16891
戎装	-16892
成霜	-16893
执著	-16894
扭转	-16895
拆散	-16896
拍掌	-16897
故土	-16898
斑白	-16899
旋涡	-16900
时期	-16901
月缺	-16902
来和	-16903
气派	-16904
水远	-16905
添了	-16906
燎原	-16907
爱却	-16908
爱笑	-16909
的钟	-16910
聚会	-16911
落落	-16912
被动	-16913
西湖	-16914
试图	-16915
贡献	-16916
跌入	-16917
闹钟	-16918
隔壁	-16919
难圆	-16920
ere	-16921
▁丢了	-16922
▁仔细	-16923
▁你似	-16924
▁名字	-16925
▁嘴里	-16926
▁夜风	-16927
▁它是	-16928
▁往昔	-16929
▁心会	-16930
▁昏暗	-16931
▁替我	-16932
▁死心	-16933
▁残缺	-16934
▁游荡	-16935
▁相处	-16936
▁袅袅	-16937
▁谁亦	-16938
▁财源	-16939
▁邂逅	-16940
▁随你	-16941
▁高楼	-16942
一出戏	-16943
下雨了	-16944
个民族	-16945
你的歌	-16946
再等待	-16947
只为了	-16948
我总是	-16949
摇晃晃	-16950
是否有	-16951
是爱情	-16952
正能量	-16953
的泪痕	-16954
的长发	-16955
知多少	-16956
等你的	-16957
该怎样	-16958
过后的	-16959
飘荡荡	-16960
▁也知道	-16961
▁伴随着	-16962
▁你带着	-16963
▁失去的	-16964
▁我把你	-16965
▁故事里	-16966
▁给我的	-16967
▁都可以	-16968
付出太多	-16969
你的梦想	-16970
勇敢一点	-16971
发现自己	-16972
多少时间	-16973
如影随形	-16974
无影无踪	-16975
望着天空	-16976
熟悉的脸	-16977
肝肠寸断	-16978
让我无法	-16979
这份感情	-16980
陪伴着我	-16981
▁你是唯一	-16982
▁心爱的人	-16983
▁怎么可以	-16984
▁情深缘浅	-16985
▁我在你的	-16986
▁我真的好	-16987
▁我需要你	-16988
▁睁开双眼	-16989
▁穿越时空	-16990
我对你的爱	-16991
▁我的心已经	-16992
▁义	-16993
▁力	-16994
▁宠	-16995
▁屏	-16996
▁显	-16997
一封	-16998
一抱	-16999
之恋	-17000
乌鸦	-17001
传颂	-17002
体面	-17003
关闭	-17004
分析	-17005
前来	-17006
千愁	-17007
参透	-17008
各位	-17009
唱得	-17010
善恶	-17011
地厚	-17012
天仙	-17013
小的	-17014
山花	-17015
山间	-17016
怕我	-17017
患者	-17018
情诗	-17019
我便	-17020
手臂	-17021
打烊	-17022
拜托	-17023
提前	-17024
更有	-17025
歉意	-17026
泥沼	-17027
淑女	-17028
照在	-17029
煮酒	-17030
碧水	-17031
绵羊	-17032
翻飞	-17033
聊聊	-17034
花间	-17035
荒诞	-17036
被风	-17037
要是	-17038
锁在	-17039
马龙	-17040
mas	-17041
▁of	-17042
▁书写	-17043
▁住在	-17044
▁在乎	-17045
▁孤寂	-17046
▁春光	-17047
▁满眼	-17048
▁白头	-17049
▁睡吧	-17050
▁纯真	-17051
▁纷纷	-17052
▁要把	-17053
▁迷路	-17054
一整夜	-17055
为爱而	-17056
你说过	-17057
做的事	-17058
在其中	-17059
大家都	-17060
太短暂	-17061
好多年	-17062
感动你	-17063
慢慢变	-17064
懂我的	-17065
我来说	-17066
无边的	-17067
日记里	-17068
棉花糖	-17069
爱别人	-17070
爹和娘	-17071
的叹息	-17072
着回忆	-17073
谁的谁	-17074
迷糊糊	-17075
都被你	-17076
▁也不必	-17077
▁享受着	-17078
▁你看我	-17079
▁只能够	-17080
▁守护着	-17081
▁我心已	-17082
▁新年好	-17083
▁是一个	-17084
▁等一个	-17085
▁解不开	-17086
为你等待	-17087
值不值得	-17088
停不下来	-17089
好好把握	-17090
已经过去	-17091
我都愿意	-17092
打个电话	-17093
来来往往	-17094
没有改变	-17095
繁星点点	-17096
让你看见	-17097
迷失自己	-17098
onely	-17099
▁一带一路	-17100
▁如果爱你	-17101
▁带着你的	-17102
在你我之间	-17103
12	-17104
▁狗	-17105
一拍	-17106
一语	-17107
不返	-17108
关掉	-17109
出没	-17110
半句	-17111
在世	-17112
宏图	-17113
并没	-17114
幻梦	-17115
开场	-17116
息间	-17117
我对	-17118
我无	-17119
扑通	-17120
有雨	-17121
残破	-17122
浑身	-17123
淇淋	-17124
炎凉	-17125
的对	-17126
碰触	-17127
秋意	-17128
覆辙	-17129
路程	-17130
踏破	-17131
轻纱	-17132
还算	-17133
送走	-17134
长了	-17135
飞啊	-17136
▁人已	-17137
▁似是	-17138
▁共度	-17139
▁吹得	-17140
▁哼着	-17141
▁守住	-17142
▁对爱	-17143
▁心是	-17144
▁我所	-17145
▁整夜	-17146
▁浮华	-17147
▁真挚	-17148
▁耗尽	-17149
▁虽说	-17150
▁融入	-17151
也是我	-17152
分不开	-17153
又开始	-17154
在何处	-17155
在脚下	-17156
就够了	-17157
开满了	-17158
当时的	-17159
恩爱爱	-17160
我们俩	-17161
放得下	-17162
爱着他	-17163
的小河	-17164
的心思	-17165
的离开	-17166
的风浪	-17167
红尘里	-17168
走进了	-17169
那么傻	-17170
随着你	-17171
▁way	-17172
▁却换来	-17173
▁又是一	-17174
▁在心底	-17175
▁就没有	-17176
▁恋爱的	-17177
▁我爱得	-17178
▁摇啊摇	-17179
▁给我个	-17180
▁让我能	-17181
到我身边	-17182
总是让人	-17183
我的心事	-17184
越陷越深	-17185
▁一心一意	-17186
▁不要不要	-17187
▁只是因为	-17188
▁只有你能	-17189
▁如果你能	-17190
▁记忆中的	-17191
▁那些回忆	-17192
天上的星星	-17193
每一个角落	-17194
▁night	-17195
▁茫茫人海中	-17196
▁啦啦啦啦啦啦啦啦啦	-17197
co	-17198
▁3	-17199
▁商	-17200
▁晴	-17201
▁犯	-17202
▁猛	-17203
▁纳	-17204
一试	-17205
万代	-17206
个大	-17207
停步	-17208
再生	-17209
到哪	-17210
又不	-17211
双方	-17212
受够	-17213
她们	-17214
微醺	-17215
我用	-17216
挥别	-17217
揉碎	-17218
旅游	-17219
止步	-17220
球鞋	-17221
白纸	-17222
的却	-17223
碰上	-17224
绵长	-17225
绿灯	-17226
胡乱	-17227
脚丫	-17228
负重	-17229
踩着	-17230
输得	-17231
闪动	-17232
闯入	-17233
难料	-17234
难离	-17235
风骚	-17236
▁Ah	-17237
▁事事	-17238
▁喝酒	-17239
▁心心	-17240
▁情已	-17241
▁我竟	-17242
▁时针	-17243
▁望向	-17244
▁歌儿	-17245
▁泪光	-17246
▁流下	-17247
▁短短	-17248
▁空留	-17249
▁胸口	-17250
▁那张	-17251
▁非要	-17252
▁鞭炮	-17253
▁飘荡	-17254
不可挡	-17255
到嘴边	-17256
化作了	-17257
口不提	-17258
听见你	-17259
圣诞节	-17260
就快要	-17261
很精彩	-17262
怪自己	-17263
恍惚惚	-17264
想着谁	-17265
房间里	-17266
没有爱	-17267
的心动	-17268
的念头	-17269
的路途	-17270
看风景	-17271
贴心的	-17272
随风而	-17273
▁一阵阵	-17274
▁也会有	-17275
▁你以为	-17276
▁带给我	-17277
▁恨自己	-17278
▁爱情里	-17279
▁爱我就	-17280
▁用什么	-17281
▁用生命	-17282
▁面对你	-17283
东西南北	-17284
你的存在	-17285
太阳升起	-17286
放不下的	-17287
最后还是	-17288
来到这里	-17289
沉默不语	-17290
美好回忆	-17291
▁你不要再	-17292
▁孤单的我	-17293
▁怎么才能	-17294
▁擦肩而过	-17295
▁宽	-17296
▁巧	-17297
▁添	-17298
▁色	-17299
▁谱	-17300
之人	-17301
九月	-17302
伏笔	-17303
但我	-17304
假面	-17305
冰山	-17306
出嫁	-17307
初醒	-17308
同享	-17309
吻着	-17310
唱越	-17311
容忍	-17312
寻回	-17313
小桥	-17314
尘烟	-17315
带泪	-17316
得儿	-17317
惊动	-17318
成灾	-17319
提示	-17320
支歌	-17321
攻击	-17322
朝着	-17323
梦儿	-17324
水墨	-17325
沾满	-17326
泪满	-17327
泰山	-17328
浅唱	-17329
热诚	-17330
焦虑	-17331
理睬	-17332
的面	-17333
落入	-17334
蜗牛	-17335
言败	-17336
走失	-17337
过谁	-17338
还休	-17339
通宵	-17340
野马	-17341
面临	-17342
黄的	-17343
▁万丈	-17344
▁两颗	-17345
▁你怎	-17346
▁千百	-17347
▁千金	-17348
▁右手	-17349
▁喔喔	-17350
▁懒得	-17351
▁没错	-17352
▁满腹	-17353
▁璀璨	-17354
▁相同	-17355
▁芙蓉	-17356
▁蔓延	-17357
▁道路	-17358
▁那我	-17359
▁醉在	-17360
▁飞舞	-17361
▁鸿雁	-17362
一把火	-17363
亲吻你	-17364
几十年	-17365
努力去	-17366
多少泪	-17367
差不多	-17368
已变成	-17369
心里有	-17370
忘掉你	-17371
我才能	-17372
有阳光	-17373
来爱你	-17374
注定的	-17375
满人间	-17376
炙热的	-17377
爱过了	-17378
牵你手	-17379
的枷锁	-17380
的道理	-17381
的难过	-17382
看得到	-17383
被岁月	-17384
请你别	-17385
遮住了	-17386
▁唱一曲	-17387
▁喔喔喔	-17388
▁我像个	-17389
▁那曾经	-17390
▁面对面	-17391
上天安排	-17392
不会放弃	-17393
措手不及	-17394
新的生活	-17395
有多重要	-17396
置身事外	-17397
让我难过	-17398
说走就走	-17399
thing	-17400
▁need	-17401
▁万事如意	-17402
▁你一定要	-17403
▁你的快乐	-17404
▁冥冥之中	-17405
▁寂寞的人	-17406
▁我的宝贝	-17407
▁爱你爱得	-17408
▁这里没有	-17409
不在我身边	-17410
你的世界里	-17411
好好的珍惜	-17412
▁如果你愿意	-17413
▁暴	-17414
▁织	-17415
▁觅	-17416
▁铃	-17417
一纸	-17418
万分	-17419
两只	-17420
两点	-17421
个愿	-17422
之乡	-17423
乡情	-17424
五洲	-17425
做着	-17426
关在	-17427
再聚	-17428
再苦	-17429
喜剧	-17430
坚硬	-17431
埋没	-17432
娇媚	-17433
字眼	-17434
小子	-17435
往来	-17436
恋火	-17437
惊涛	-17438
我可	-17439
我所	-17440
打碎	-17441
敢爱	-17442
新欢	-17443
旌旗	-17444
星宿	-17445
是苦	-17446
暗了	-17447
有罪	-17448
未老	-17449
条条	-17450
桦林	-17451
沾染	-17452
淅沥	-17453
溪流	-17454
灿灿	-17455
点小	-17456
烟云	-17457
的女	-17458
神采	-17459
秋季	-17460
翻天	-17461
荔枝	-17462
轮转	-17463
辛劳	-17464
造化	-17465
遗落	-17466
镜花	-17467
队伍	-17468
阡陌	-17469
陶陶	-17470
难寻	-17471
雨丝	-17472
骨气	-17473
▁久久	-17474
▁似水	-17475
▁再去	-17476
▁冲动	-17477
▁四面	-17478
▁困在	-17479
▁方知	-17480
▁晴朗	-17481
▁歌颂	-17482
▁漂流	-17483
▁落下	-17484
▁虚伪	-17485
▁蝶儿	-17486
▁锣鼓	-17487
一年年	-17488
也为你	-17489
了世界	-17490
你的路	-17491
十八岁	-17492
和地久	-17493
坎坎坷	-17494
定格在	-17495
已渐渐	-17496
愁善感	-17497
有人在	-17498
梦里面	-17499
流不息	-17500
现实中	-17501
空气里	-17502
能与你	-17503
那么真	-17504
very	-17505
▁不管我	-17506
▁多一点	-17507
▁我对着	-17508
▁我很想	-17509
▁把我们	-17510
▁是与非	-17511
▁知不知	-17512
▁能让你	-17513
▁谁叫我	-17514
▁风儿吹	-17515
不由自主	-17516
不经意的	-17517
坎坎坷坷	-17518
慢慢变老	-17519
我们爱的	-17520
花好月圆	-17521
远方的你	-17522
▁你温柔的	-17523
▁却不知道	-17524
▁可是你却	-17525
▁属于我的	-17526
▁年少轻狂	-17527
▁陪你走过	-17528
唱起这首歌	-17529
我们的约定	-17530
陪在我身边	-17531
▁V	-17532
▁升	-17533
▁承	-17534
▁枉	-17535
不作	-17536
不容	-17537
不羡	-17538
于此	-17539
入口	-17540
共醉	-17541
冲刷	-17542
冲洗	-17543
刀锋	-17544
发的	-17545
名扬	-17546
和妈	-17547
唱首	-17548
啊你	-17549
困苦	-17550
奋勇	-17551
孤舟	-17552
建造	-17553
弱水	-17554
成堆	-17555
我自	-17556
擦掉	-17557
文章	-17558
是甜	-17559
水滴	-17560
牧羊	-17561
畅游	-17562
的战	-17563
的这	-17564
结了	-17565
结合	-17566
绳索	-17567
萌芽	-17568
请求	-17569
赤诚	-17570
霹雳	-17571
饰演	-17572
▁sh	-17573
▁不好	-17574
▁你比	-17575
▁共享	-17576
▁再苦	-17577
▁只知	-17578
▁好梦	-17579
▁尽力	-17580
▁悠然	-17581
▁患难	-17582
▁我向	-17583
▁手指	-17584
▁明亮	-17585
▁空空	-17586
▁远走	-17587
▁阴霾	-17588
不想要	-17589
不自觉	-17590
不觉得	-17591
么么哒	-17592
之不易	-17593
也值得	-17594
你为何	-17595
千百年	-17596
如何能	-17597
微微笑	-17598
怕什么	-17599
明白白	-17600
没改变	-17601
消失的	-17602
的心啊	-17603
的心窝	-17604
的痛楚	-17605
的白云	-17606
看得清	-17607
真心话	-17608
红酒绿	-17609
要不要	-17610
跟我说	-17611
遗忘的	-17612
那天起	-17613
▁你说爱	-17614
▁别回头	-17615
▁寂寞是	-17616
▁想你在	-17617
▁我想起	-17618
▁照亮了	-17619
▁爱情它	-17620
▁等你的	-17621
▁越走越	-17622
一个眼神	-17623
一滴眼泪	-17624
不算什么	-17625
我的心灵	-17626
把我抛弃	-17627
曲终人散	-17628
有一个人	-17629
的你和我	-17630
盛开的花	-17631
▁我的人生	-17632
▁无声无息	-17633
▁花前月下	-17634
命运的安排	-17635
▁就让我一个人	-17636
▁宫	-17637
▁师	-17638
▁康	-17639
▁皮	-17640
▁祖	-17641
▁防	-17642
一匹	-17643
不畏	-17644
不紧	-17645
伶仃	-17646
信片	-17647
停过	-17648
傲骨	-17649
再拖	-17650
判断	-17651
友善	-17652
咦耶	-17653
哟喂	-17654
大梦	-17655
天鹅	-17656
太小	-17657
如潮	-17658
对于	-17659
将就	-17660
就被	-17661
彤彤	-17662
得快	-17663
心都	-17664
恋花	-17665
指挥	-17666
接收	-17667
教室	-17668
斩棘	-17669
未怕	-17670
村口	-17671
歌手	-17672
没来	-17673
相当	-17674
秧歌	-17675
茹苦	-17676
要把	-17677
那刻	-17678
那夜	-17679
闺蜜	-17680
▁一纸	-17681
▁不被	-17682
▁公主	-17683
▁吹过	-17684
▁壮志	-17685
▁妄想	-17686
▁就该	-17687
▁年月	-17688
▁往往	-17689
▁忍着	-17690
▁气氛	-17691
▁祝您	-17692
▁胸怀	-17693
▁那夜	-17694
不再见	-17695
会说话	-17696
发大财	-17697
另一端	-17698
向世界	-17699
告诉她	-17700
哎呀呀	-17701
大街上	-17702
就有多	-17703
我们去	-17704
才可以	-17705
新世界	-17706
残酷的	-17707
水马龙	-17708
的美酒	-17709
真情的	-17710
花开了	-17711
过得好	-17712
还是错	-17713
那时的	-17714
都觉得	-17715
里行间	-17716
静悄悄	-17717
usic	-17718
▁你就会	-17719
▁彼此都	-17720
▁怎么去	-17721
▁想知道	-17722
▁我听到	-17723
▁让岁月	-17724
▁让眼泪	-17725
▁远远的	-17726
▁迷失了	-17727
千里之外	-17728
把我想起	-17729
无法入睡	-17730
无法释怀	-17731
有一天你	-17732
每一个人	-17733
深爱的你	-17734
▁今生无缘	-17735
▁分分合合	-17736
▁如果能够	-17737
▁妈妈妈妈	-17738
▁我们共同	-17739
▁我们都有	-17740
▁曾经的爱	-17741
▁来来回回	-17742
▁辗转反侧	-17743
▁这一辈子	-17744
变得越来越	-17745
和我在一起	-17746
在你的左右	-17747
很远的地方	-17748
sy	-17749
▁付	-17750
也变	-17751
传达	-17752
似梦	-17753
偏差	-17754
兴隆	-17755
危机	-17756
同类	-17757
吻过	-17758
呀啦	-17759
和水	-17760
啊转	-17761
在下	-17762
大风	-17763
寸步	-17764
小楼	-17765
峡谷	-17766
情海	-17767
掌纹	-17768
掏心	-17769
早该	-17770
昂贵	-17771
极了	-17772
棉被	-17773
涛声	-17774
烟雾	-17775
畅饮	-17776
盈眶	-17777
盛满	-17778
看尽	-17779
睡在	-17780
磅礴	-17781
祈愿	-17782
章节	-17783
羁绊	-17784
美了	-17785
背起	-17786
藏布	-17787
规律	-17788
重圆	-17789
长亭	-17790
长眠	-17791
阁楼	-17792
▁和他	-17793
▁姐妹	-17794
▁就如	-17795
▁打湿	-17796
▁是他	-17797
▁最最	-17798
▁有的	-17799
▁苍茫	-17800
▁荆棘	-17801
▁迷惘	-17802
▁韶华	-17803
一个他	-17804
不简单	-17805
不见底	-17806
丝万缕	-17807
也有我	-17808
你依然	-17809
到黄昏	-17810
却不知	-17811
在今天	-17812
对着我	-17813
我也要	-17814
我心跳	-17815
时代的	-17816
望着我	-17817
欠你的	-17818
满满的	-17819
痴痴地	-17820
的儿女	-17821
的坚持	-17822
的工作	-17823
的曙光	-17824
的激情	-17825
的视线	-17826
的酒杯	-17827
真的是	-17828
还依然	-17829
▁你的吻	-17830
▁儿时的	-17831
▁别怪我	-17832
▁妈妈说	-17833
▁我深深	-17834
▁我那么	-17835
▁纵然是	-17836
▁谁在乎	-17837
一见钟情	-17838
不经意间	-17839
也没有用	-17840
想你想你	-17841
我在等你	-17842
我真的好	-17843
某个角落	-17844
百转千回	-17845
轻易放弃	-17846
选择离开	-17847
陪你走过	-17848
魂牵梦萦	-17849
▁girl	-17850
▁你还好吗	-17851
▁花花世界	-17852
▁走到哪里	-17853
▁陪我走过	-17854
▁风吹雨打	-17855
开始的地方	-17856
▁外面的世界	-17857
▁俺	-17858
▁吓	-17859
▁咪	-17860
▁汉	-17861
▁爽	-17862
▁陷	-17863
▁露	-17864
▁骨	-17865
一味	-17866
不干	-17867
两头	-17868
了头	-17869
删掉	-17870
千千	-17871
同伴	-17872
墓碑	-17873
太坏	-17874
妻子	-17875
孤岛	-17876
憨憨	-17877
无趣	-17878
春联	-17879
每句	-17880
沉闷	-17881
泥巴	-17882
照料	-17883
照进	-17884
独往	-17885
理我	-17886
纵情	-17887
而复	-17888
要靠	-17889
让谁	-17890
说破	-17891
躲闪	-17892
飘在	-17893
▁DA	-17894
▁不像	-17895
▁令你	-17896
▁冰封	-17897
▁懵懂	-17898
▁挫折	-17899
▁更多	-17900
▁神仙	-17901
▁练习	-17902
▁说来	-17903
▁门外	-17904
一年的	-17905
九十九	-17906
含着泪	-17907
在寻找	-17908
在街上	-17909
塌下来	-17910
差一点	-17911
年少的	-17912
我心上	-17913
比你更	-17914
漫长的	-17915
的人最	-17916
的回答	-17917
盲目的	-17918
看我的	-17919
离开这	-17920
让一切	-17921
谁也不	-17922
过的歌	-17923
▁不确定	-17924
▁可知我	-17925
▁无尽的	-17926
▁有很多	-17927
▁用心去	-17928
▁眼看着	-17929
我的感觉	-17930
我的爱恋	-17931
所有烦恼	-17932
永不改变	-17933
花开花谢	-17934
陪我度过	-17935
▁不想让你	-17936
▁你的样子	-17937
▁在你心里	-17938
▁小桥流水	-17939
▁就是我的	-17940
▁我的寂寞	-17941
▁我的明天	-17942
▁我要为你	-17943
▁日复一日	-17944
▁望穿秋水	-17945
▁若即若离	-17946
在你的世界	-17947
▁every	-17948
▁sorry	-17949
▁牵着我的手	-17950
ri	-17951
▁母	-17952
▁葬	-17953
▁魔	-17954
一剑	-17955
一摇	-17956
一江	-17957
云上	-17958
他是	-17959
低声	-17960
冉冉	-17961
再现	-17962
动荡	-17963
十个	-17964
原则	-17965
受累	-17966
古丽	-17967
吃饱	-17968
同当	-17969
嘲讽	-17970
场梦	-17971
失散	-17972
好事	-17973
我为	-17974
放假	-17975
敲门	-17976
曲曲	-17977
栋梁	-17978
涉水	-17979
淳朴	-17980
混沌	-17981
清波	-17982
犯傻	-17983
的暗	-17984
真有	-17985
睡醒	-17986
纵然	-17987
缺席	-17988
艳艳	-17989
苦衷	-17990
落得	-17991
财源	-17992
还给	-17993
雾霾	-17994
风来	-17995
out	-17996
▁从我	-17997
▁再度	-17998
▁尽量	-17999
▁山川	-18000
▁开启	-18001
▁很难	-18002
▁悲哀	-18003
▁想用	-18004
▁我无	-18005
▁手握	-18006
▁执手	-18007
▁月圆	-18008
▁歌词	-18009
▁汇聚	-18010
▁沙漠	-18011
▁烈火	-18012
▁爱却	-18013
▁痛彻	-18014
▁黄沙	-18015
不珍惜	-18016
不罢休	-18017
了千年	-18018
你的我	-18019
到我的	-18020
去挽留	-18021
听不懂	-18022
多美妙	-18023
太完美	-18024
太过于	-18025
少一点	-18026
很重要	-18027
打扰你	-18028
照亮我	-18029
的人呐	-18030
见一面	-18031
豁出去	-18032
这句话	-18033
难忘的	-18034
▁你需要	-18035
▁微风吹	-18036
▁我唱着	-18037
▁我才能	-18038
▁若是你	-18039
▁那一次	-18040
为你停留	-18041
会有一天	-18042
你不知道	-18043
充满阳光	-18044
回到最初	-18045
我的回忆	-18046
相濡以沫	-18047
让我着迷	-18048
都不知道	-18049
青春年华	-18050
▁偶尔也会	-18051
▁分手以后	-18052
[...]
